<unk>	0
<s>	0
</s>	0
▁the	-3.08609
▁,	-3.21099
s	-3.4186
▁.	-3.5259
▁of	-3.80632
▁and	-3.89868
ed	-3.99209
▁to	-4.12196
▁in	-4.14672
▁a	-4.21286
▁=	-4.43154
▁"	-4.52358
▁was	-4.73792
@	-4.76738
▁@	-4.78343
▁	-4.8052
ing	-4.85571
▁'	-4.86646
-	-4.92043
▁The	-4.95436
▁on	-5.17515
▁for	-5.18551
▁that	-5.20059
ly	-5.21596
▁with	-5.2698
▁as	-5.29128
▁by	-5.32238
▁)	-5.35232
▁(	-5.35292
▁is	-5.47631
y	-5.57322
.	-5.62304
▁his	-5.64243
▁from	-5.65396
d	-5.67004
▁at	-5.69034
▁were	-5.84829
e	-5.87797
▁it	-5.89853
▁he	-5.93127
▁an	-5.96953
▁In	-5.98723
▁had	-6.04056
▁which	-6.10307
▁be	-6.18377
t	-6.36123
er	-6.38588
▁not	-6.39526
▁but	-6.39928
▁are	-6.4076
▁A	-6.44538
▁;	-6.46944
▁first	-6.47491
▁their	-6.49634
▁–	-6.49884
▁:	-6.52355
▁her	-6.52362
▁also	-6.53051
▁or	-6.57866
▁who	-6.59418
▁one	-6.61587
▁have	-6.62134
▁its	-6.62289
▁I	-6.62524
▁He	-6.64695
▁two	-6.6662
n	-6.6779
▁been	-6.698
▁has	-6.69826
▁@,@	-6.71704
a	-6.73505
▁this	-6.74086
es	-6.74733
th	-6.7778
▁1	-6.84358
▁after	-6.84532
▁time	-6.84677
▁would	-6.87457
▁It	-6.88725
▁into	-6.90555
▁other	-6.92381
▁over	-6.97839
▁2	-6.98149
▁they	-6.98536
o	-7.01538
▁more	-7.01873
▁all	-7.07903
▁she	-7.08187
▁when	-7.08809
▁him	-7.11834
▁up	-7.11886
▁3	-7.13036
▁out	-7.13855
▁during	-7.15375
▁most	-7.17422
▁game	-7.18585
▁On	-7.1924
▁film	-7.20766
▁than	-7.21972
▁about	-7.22025
▁only	-7.22278
▁between	-7.24176
▁later	-7.24317
▁three	-7.25312
▁new	-7.25729
▁while	-7.29616
▁5	-7.30005
al	-7.30501
r	-7.3508
▁4	-7.35907
m	-7.36114
▁made	-7.36525
i	-7.37183
▁season	-7.37519
▁where	-7.37942
▁New	-7.38308
▁000	-7.39374
▁some	-7.39459
▁such	-7.40305
▁year	-7.40389
▁before	-7.4167
▁second	-7.44444
▁This	-7.45247
▁/	-7.45638
▁B	-7.46884
▁years	-7.48194
▁used	-7.4848
▁under	-7.48507
▁part	-7.50154
▁number	-7.5115
▁being	-7.51468
▁D	-7.51831
▁them	-7.51958
▁through	-7.52182
▁album	-7.52748
▁against	-7.52834
▁song	-7.53172
▁can	-7.55049
▁no	-7.56175
▁became	-7.56626
▁including	-7.57866
▁—	-7.57919
▁United	-7.59029
▁6	-7.59031
▁After	-7.59106
▁well	-7.59301
on	-7.59552
▁both	-7.59717
▁there	-7.6073
▁series	-7.60833
▁S	-7.61493
▁so	-7.61578
en	-7.61912
st	-7.61937
▁then	-7.62326
▁team	-7.62858
▁10	-7.64829
▁episode	-7.65456
▁four	-7.65883
▁like	-7.67603
▁American	-7.67932
▁work	-7.67965
▁said	-7.69387
ies	-7.69554
▁many	-7.69988
▁7	-7.70115
though	-7.70871
▁several	-7.71108
▁found	-7.71497
▁U	-7.71615
▁8	-7.71756
▁As	-7.71782
▁known	-7.73082
▁could	-7.73294
▁did	-7.73747
in	-7.74987
▁She	-7.75276
us	-7.7531
▁C	-7.75413
▁return	-7.75685
▁began	-7.75879
▁near	-7.76776
▁day	-7.78084
▁place	-7.78085
ers	-7.78708
▁end	-7.78828
▁Al	-7.79231
▁early	-7.79276
▁9	-7.79429
ion	-7.7946
able	-7.79506
man	-7.79829
▁use	-7.80229
▁until	-7.80387
▁released	-7.80518
▁called	-7.8092
le	-7.81751
▁At	-7.82093
▁M	-7.82221
▁million	-7.82853
▁remain	-7.83515
▁show	-7.83934
▁de	-7.84582
S	-7.84634
▁along	-7.84941
▁back	-7.84993
▁E	-7.85394
▁British	-7.85642
▁15	-7.86513
▁long	-7.87068
$	-7.87783
an	-7.87931
▁final	-7.88895
▁War	-7.89179
▁people	-7.89323
▁original	-7.89383
est	-7.89609
▁20	-7.8983
▁T	-7.89845
▁receiv	-7.89988
▁R	-7.9009
▁September	-7.90772
▁these	-7.90873
▁0	-7.91039
▁August	-7.9106
▁12	-7.91176
▁music	-7.91557
▁May	-7.91564
▁m	-7.91973
▁large	-7.9198
▁16	-7.9203
▁same	-7.92155
▁World	-7.92403
▁because	-7.93056
▁States	-7.93254
▁al	-7.93288
k	-7.94086
▁O	-7.94518
▁around	-7.9492
l	-7.95024
▁km	-7.95304
▁may	-7.95334
▁took	-7.96223
▁state	-7.96324
▁John	-7.97181
▁off	-7.97858
▁following	-7.98064
▁However	-7.98333
re	-7.98805
ic	-7.99197
▁re	-7.99541
▁October	-7.99804
▁any	-7.99949
▁area	-8.00492
▁un	-8.00685
▁17	-8.01004
▁main	-8.01161
▁war	-8.01547
▁each	-8.02067
▁life	-8.02398
▁five	-8.02412
▁lead	-8.02956
▁century	-8.03004
▁G	-8.03075
▁F	-8.03902
▁high	-8.04071
▁down	-8.04391
▁single	-8.0442
▁]	-8.04464
[	-8.0467
▁small	-8.04797
▁P	-8.04891
▁US	-8.04934
▁June	-8.05021
▁city	-8.05153
▁July	-8.07149
▁11	-8.07167
▁%	-8.07259
▁since	-8.07393
▁order	-8.07609
▁November	-8.07788
2	-8.07808
▁York	-8.08383
ation	-8.0848
▁set	-8.09199
▁March	-8.09511
▁April	-8.09775
▁will	-8.09905
ity	-8.10698
▁attack	-8.10769
▁group	-8.11828
▁They	-8.12113
▁allow	-8.12201
▁great	-8.12586
▁name	-8.12637
▁government	-8.12839
▁consider	-8.13194
▁line	-8.13233
▁what	-8.1325
▁left	-8.13414
um	-8.13556
g	-8.13751
▁18	-8.13885
▁character	-8.14295
▁During	-8.14812
▁reach	-8.15012
▁North	-8.15047
▁system	-8.15284
▁last	-8.15366
▁December	-8.15709
▁due	-8.1582
▁third	-8.15892
▁13	-8.15981
▁home	-8.15999
c	-8.16546
▁much	-8.16843
▁January	-8.17181
▁if	-8.17267
▁band	-8.17389
▁30	-8.17433
▁another	-8.1755
▁included	-8.17572
▁...	-8.18028
▁own	-8.1814
▁force	-8.18191
▁based	-8.18259
▁played	-8.18405
u	-8.186
▁14	-8.18944
▁wrote	-8.19079
▁When	-8.19164
ia	-8.19203
▁South	-8.19278
▁change	-8.19489
▁old	-8.19646
▁death	-8.19754
▁won	-8.20502
▁short	-8.20703
▁start	-8.20798
▁record	-8.21336
▁play	-8.21557
h	-8.21637
▁St	-8.21941
▁do	-8.21964
▁six	-8.22225
▁L	-8.22429
▁By	-8.22656
▁led	-8.23443
▁previous	-8.23586
▁described	-8.23665
▁support	-8.23809
ar	-8.23918
▁family	-8.24022
▁just	-8.2431
▁include	-8.25005
▁ship	-8.25196
▁named	-8.25274
▁make	-8.25425
▁No	-8.2577
or	-8.25834
▁north	-8.26138
▁world	-8.26327
▁now	-8.2665
p	-8.27361
▁late	-8.28079
▁very	-8.28881
▁German	-8.28923
▁form	-8.29129
those	-8.29176
▁result	-8.29481
▁K	-8.29583
▁February	-8.29654
▁still	-8.29797
▁men	-8.30015
▁take	-8.30159
▁next	-8.30206
▁perform	-8.30422
▁match	-8.3043
▁species	-8.3045
▁release	-8.30554
▁best	-8.30728
▁video	-8.31157
▁side	-8.31783
▁power	-8.31911
▁major	-8.3217
▁His	-8.32216
▁National	-8.32511
▁19	-8.32552
▁role	-8.33089
▁French	-8.33366
▁built	-8.33369
▁held	-8.33514
▁100	-8.33556
▁within	-8.3393
▁2010	-8.33939
▁former	-8.34352
▁W	-8.34559
▁local	-8.34715
ce	-8.34929
▁25	-8.35473
▁way	-8.35486
▁again	-8.35616
▁H	-8.36108
▁public	-8.36204
▁south	-8.36571
▁For	-8.36588
▁There	-8.36865
▁water	-8.37047
▁school	-8.37139
▁title	-8.37605
▁air	-8.37696
▁N	-8.37888
▁help	-8.37918
▁games	-8.38022
b	-8.38135
▁All	-8.38366
▁production	-8.38691
▁however	-8.38787
▁top	-8.39113
▁period	-8.39154
ton	-8.39167
▁2008	-8.393
▁even	-8.3949
▁2009	-8.39905
▁per	-8.40312
▁you	-8.40332
se	-8.40457
ian	-8.40616
▁came	-8.40929
▁different	-8.40988
▁continued	-8.41302
▁2011	-8.41506
▁book	-8.41627
▁follow	-8.41823
▁career	-8.41889
▁among	-8.41895
▁often	-8.41916
▁similar	-8.42043
▁West	-8.42422
▁storm	-8.42518
▁members	-8.42996
▁days	-8.43191
▁England	-8.43502
&	-8.43584
▁further	-8.43946
▁point	-8.44026
▁half	-8.44133
▁turn	-8.44703
▁we	-8.44717
▁King	-8.44748
▁One	-8.45177
ism	-8.45513
▁2007	-8.45689
▁position	-8.46063
having	-8.46187
▁become	-8.46377
▁player	-8.46396
▁story	-8.46415
▁version	-8.467
▁To	-8.4682
▁City	-8.47103
▁River	-8.4734
▁English	-8.47889
▁few	-8.4789
▁An	-8.48076
el	-8.48209
▁21	-8.48571
ist	-8.48821
▁join	-8.48963
▁without	-8.49049
▁total	-8.49171
▁2012	-8.49337
▁history	-8.49641
▁II	-8.4968
▁track	-8.50225
ry	-8.50346
▁land	-8.50653
▁London	-8.50659
3	-8.51068
ta	-8.51555
▁full	-8.51559
▁24	-8.51693
is	-8.52062
▁h	-8.52171
▁written	-8.52375
ive	-8.53419
z	-8.53659
▁man	-8.53963
▁close	-8.54127
▁east	-8.543
▁fire	-8.54953
▁given	-8.54988
▁though	-8.55116
▁University	-8.55399
▁gave	-8.55485
▁control	-8.56187
▁While	-8.56348
▁De	-8.56766
▁service	-8.56922
▁J	-8.57087
▁act	-8.57364
▁head	-8.57543
▁company	-8.57736
▁went	-8.5788
▁week	-8.58015
▁initial	-8.58168
▁town	-8.58207
▁published	-8.58558
▁caus	-8.58622
▁building	-8.58702
▁development	-8.59273
▁2006	-8.5932
▁common	-8.59444
▁lost	-8.59447
▁move	-8.59483
▁west	-8.59513
▁performance	-8.59859
▁reported	-8.60056
▁particular	-8.60203
▁stated	-8.60301
▁run	-8.60528
▁22	-8.60624
x	-8.60925
▁According	-8.60933
▁list	-8.6103
▁State	-8.61286
▁pass	-8.61432
C	-8.61644
▁right	-8.61698
▁suggest	-8.61841
▁never	-8.61995
▁General	-8.62191
▁country	-8.62343
▁V	-8.62542
▁co	-8.62554
▁using	-8.63065
▁low	-8.63111
▁strong	-8.63505
▁father	-8.63723
▁making	-8.63879
▁club	-8.63967
▁claim	-8.6426
▁aircraft	-8.64278
▁Australia	-8.64325
▁recorded	-8.64382
▁real	-8.64391
▁military	-8.64412
▁himself	-8.64508
▁2013	-8.646
▁50	-8.64609
▁These	-8.64673
by	-8.65191
▁cover	-8.65227
▁mi	-8.65463
▁sign	-8.65505
ness	-8.65606
▁William	-8.65701
co	-8.66067
▁produc	-8.66397
▁direct	-8.66427
▁featur	-8.66481
▁forces	-8.66697
▁toward	-8.66898
▁ships	-8.67103
▁design	-8.67202
▁James	-8.67237
▁less	-8.67627
ch	-8.68088
f	-8.68169
▁Australian	-8.68207
▁23	-8.68235
▁Park	-8.68424
na	-8.68563
ne	-8.68584
te	-8.6863
ter	-8.6878
▁house	-8.68782
▁ft	-8.68809
▁how	-8.6888
▁post	-8.69207
▁Army	-8.69237
▁Division	-8.69256
▁present	-8.69409
▁good	-8.69413
▁class	-8.69713
▁America	-8.69901
land	-8.69919
▁win	-8.70381
▁League	-8.70616
▁political	-8.70777
▁died	-8.70831
▁George	-8.70851
▁son	-8.71244
▁developed	-8.71401
ve	-8.71439
ent	-8.71439
▁age	-8.71454
▁light	-8.71505
ant	-8.71628
▁children	-8.71697
▁range	-8.72043
D	-8.721
▁La	-8.72124
▁months	-8.72253
▁Man	-8.72316
▁across	-8.72437
▁ten	-8.72527
son	-8.72552
ally	-8.72669
▁official	-8.72718
▁Street	-8.72752
▁style	-8.73299
▁eight	-8.73716
▁away	-8.73793
▁felt	-8.73838
▁sent	-8.73899
▁writing	-8.73909
▁40	-8.74034
▁tour	-8.74194
▁national	-8.74519
ie	-8.7491
less	-8.74955
B	-8.7499
▁announced	-8.74998
▁television	-8.75199
▁We	-8.75234
▁Japanese	-8.75329
▁characters	-8.75344
▁County	-8.75442
ary	-8.75601
▁seven	-8.75615
▁level	-8.75897
▁With	-8.75936
▁route	-8.7595
▁Road	-8.75961
▁should	-8.76118
▁2005	-8.76274
▁songs	-8.76277
men	-8.76287
▁command	-8.76367
▁get	-8.76379
▁successful	-8.76538
▁27	-8.76721
▁station	-8.76954
▁eventual	-8.77039
▁thought	-8.77261
▁various	-8.77281
ley	-8.77366
▁28	-8.77382
▁’	-8.77401
▁seen	-8.77606
▁success	-8.77769
nd	-8.78192
▁battle	-8.78231
▁race	-8.78322
▁general	-8.78452
▁2014	-8.78688
▁need	-8.78696
▁Air	-8.78833
▁26	-8.78847
▁contain	-8.792
▁campaign	-8.79322
1	-8.79465
ma	-8.79566
▁road	-8.79678
ra	-8.80073
▁look	-8.80284
▁ask	-8.80573
▁addition	-8.80643
▁night	-8.80662
▁killed	-8.80865
▁tropical	-8.80898
▁Me	-8.80924
▁white	-8.80959
▁black	-8.8114
to	-8.81232
▁throughout	-8.81249
il	-8.81282
▁member	-8.81351
▁fight	-8.81368
▁stage	-8.81479
▁award	-8.81556
▁debut	-8.81785
▁serv	-8.81856
▁little	-8.8205
▁complete	-8.82363
▁Le	-8.82549
▁peak	-8.82743
▁areas	-8.82834
et	-8.83039
▁players	-8.83295
▁law	-8.83535
▁open	-8.83714
▁entire	-8.83726
▁mm	-8.83727
▁East	-8.83791
▁involv	-8.83853
▁!	-8.83904
▁able	-8.83979
ty	-8.8398
▁does	-8.83992
▁Michael	-8.8401
▁established	-8.8405
▁go	-8.84248
▁creat	-8.84408
▁non	-8.84446
ous	-8.84637
▁House	-8.84682
▁Royal	-8.84718
▁miles	-8.8486
A	-8.8499
▁appeared	-8.85054
▁women	-8.85284
▁live	-8.85481
▁decided	-8.85734
ment	-8.85837
▁Re	-8.86015
▁body	-8.86359
▁front	-8.86631
▁San	-8.87088
▁too	-8.87164
▁action	-8.87478
ro	-8.87502
▁sold	-8.87531
▁X	-8.87584
▁feet	-8.87615
▁David	-8.87714
▁me	-8.87934
▁ground	-8.88014
▁together	-8.88029
▁features	-8.88073
▁France	-8.88077
▁located	-8.88207
▁average	-8.88314
▁field	-8.88322
am	-8.8848
▁population	-8.8852
▁added	-8.88609
▁damage	-8.88785
▁my	-8.88965
▁times	-8.8905
▁once	-8.89212
▁points	-8.89242
ge	-8.89467
it	-8.89522
▁instead	-8.89552
▁site	-8.89748
▁Some	-8.89763
▁29	-8.89788
▁sea	-8.89816
▁important	-8.89828
▁saw	-8.89834
▁popular	-8.9018
me	-8.90704
▁completed	-8.91149
▁Other	-8.91251
▁every	-8.91317
▁put	-8.91403
▁mid	-8.91457
▁formed	-8.91573
▁project	-8.91588
▁2004	-8.91633
ur	-8.91914
▁scene	-8.91919
▁Star	-8.92037
rather	-8.92108
moved	-8.92223
▁rest	-8.92285
▁believ	-8.92392
▁see	-8.92419
▁behind	-8.92619
▁playing	-8.92638
▁event	-8.93434
▁Robert	-8.93648
▁construction	-8.93677
▁free	-8.93771
ine	-8.93776
▁t	-8.93815
▁2015	-8.9391
▁chart	-8.93911
age	-8.94015
▁case	-8.94035
▁replac	-8.94051
▁heavy	-8.94095
la	-8.94148
▁modern	-8.94269
▁opened	-8.94719
▁School	-8.94851
taken	-8.94903
▁Battle	-8.94927
▁You	-8.95013
▁subsequent	-8.95049
w	-8.95328
▁born	-8.95339
▁hit	-8.95521
▁rock	-8.95537
▁party	-8.96039
▁guns	-8.9624
▁noted	-8.96319
▁novel	-8.96725
▁young	-8.96731
▁Henry	-8.96745
▁upon	-8.96763
▁lack	-8.9678
▁almost	-8.9678
ling	-8.9683
▁Her	-8.96887
▁c	-8.97297
▁Black	-8.97444
▁region	-8.97546
▁2000	-8.97556
id	-8.9756
▁p	-8.9758
▁office	-8.97675
▁Best	-8.97774
▁view	-8.97861
▁fourth	-8.9789
▁scored	-8.97904
▁current	-8.98112
▁far	-8.98115
▁example	-8.98186
▁200	-8.98239
▁Co	-8.98322
▁Music	-8.98458
▁rank	-8.98652
▁provided	-8.98699
▁brought	-8.98878
▁continue	-8.99061
▁ever	-8.99244
▁individual	-8.99272
▁Be	-8.99413
▁extend	-8.9943
▁special	-8.99452
▁least	-8.99484
▁car	-8.9955
▁mother	-8.99563
▁sound	-8.9958
M	-8.99584
▁visit	-8.99661
▁review	-9.00223
▁Washington	-9.00324
▁working	-9.00606
▁quick	-9.00756
▁experience	-9.00784
▁weeks	-9.00787
▁500	-9.00818
▁either	-9.01105
▁worked	-9.01164
▁month	-9.01342
▁wanted	-9.0143
▁troops	-9.01646
espite	-9.01776
▁gun	-9.01798
▁European	-9.01864
▁wife	-9.01939
▁Paul	-9.02077
▁Europe	-9.02136
▁critics	-9.02167
4	-9.02221
▁studio	-9.02277
▁crew	-9.02309
▁31	-9.02359
▁army	-9.02525
ish	-9.02664
▁2003	-9.02784
▁Follow	-9.02891
ir	-9.02915
da	-9.02943
▁cause	-9.03316
▁wide	-9.03343
▁island	-9.03572
▁hand	-9.0397
▁President	-9.04156
▁generally	-9.04172
ba	-9.04173
ner	-9.04489
▁fail	-9.04492
N	-9.04561
▁prais	-9.04581
ol	-9.04661
▁hurricane	-9.04802
ri	-9.04871
▁Cup	-9.04887
▁First	-9.04996
▁court	-9.05031
▁discover	-9.05095
rd	-9.05113
▁love	-9.05207
▁Japan	-9.05278
▁opening	-9.05613
▁works	-9.05658
▁Great	-9.05684
▁face	-9.05828
▁mph	-9.05922
▁round	-9.0598
▁term	-9.05981
▁victory	-9.05986
▁Sea	-9.06149
▁length	-9.0624
▁Two	-9.06287
▁gain	-9.06325
▁runs	-9.06433
▁highway	-9.06463
▁process	-9.06594
▁soon	-9.06648
▁pre	-9.06837
▁space	-9.06966
▁met	-9.06969
▁business	-9.07208
▁room	-9.07321
▁Route	-9.07343
▁accept	-9.07449
▁star	-9.07469
▁cast	-9.07496
▁shot	-9.07728
▁director	-9.07818
▁appear	-9.07919
▁goal	-9.07944
▁events	-9.08259
▁human	-9.08348
▁saying	-9.08403
▁usual	-9.08475
▁finished	-9.08506
▁Bo	-9.08682
▁designed	-9.08771
▁hours	-9.08864
▁Hall	-9.09187
▁issue	-9.09739
▁southern	-9.09793
▁largest	-9.09799
▁possible	-9.09836
é	-9.10131
▁clear	-9.1023
▁From	-9.1049
▁White	-9.10528
▁Go	-9.10542
▁earlier	-9.10552
▁highest	-9.10568
▁International	-9.10582
tic	-9.10598
▁2001	-9.10605
▁create	-9.10676
▁arriv	-9.10725
▁available	-9.10765
▁significant	-9.10811
▁Charles	-9.10858
▁base	-9.10877
V	-9.10904
j	-9.10913
▁break	-9.10941
▁contract	-9.1098
▁anti	-9.11075
▁training	-9.11293
▁Court	-9.11468
▁Navy	-9.11548
be	-9.1173
▁Thomas	-9.11746
▁must	-9.11767
ham	-9.11782
▁Kingdom	-9.11846
▁appearance	-9.11942
▁°	-9.12099
▁decision	-9.12188
▁Act	-9.12317
▁minutes	-9.12319
ti	-9.12422
ka	-9.12661
▁central	-9.12797
▁maintain	-9.13218
▁lower	-9.13231
side	-9.1358
▁relationship	-9.13712
▁northern	-9.13806
▁Indian	-9.13974
▁attempt	-9.14065
ance	-9.14231
▁increased	-9.14259
▁size	-9.14391
▁focus	-9.1443
▁2002	-9.14432
▁league	-9.14545
▁surface	-9.14597
E	-9.14834
▁Canada	-9.14925
▁difficult	-9.14945
▁speed	-9.15146
▁influence	-9.15176
▁Red	-9.15189
▁nine	-9.15414
▁Island	-9.1555
▁keep	-9.15727
▁find	-9.15769
▁art	-9.15798
den	-9.15957
▁taking	-9.16086
▁High	-9.1629
▁California	-9.1632
▁outside	-9.16346
▁Dr	-9.16391
▁introduc	-9.16488
▁immediate	-9.16501
▁regard	-9.16782
no	-9.16826
5	-9.16887
ul	-9.16923
▁interest	-9.16948
▁Award	-9.16955
▁come	-9.17027
▁My	-9.17066
▁El	-9.17133
▁voice	-9.17244
▁social	-9.17345
▁Union	-9.17352
▁Smith	-9.17408
H	-9.17472
ci	-9.17658
▁units	-9.17766
▁better	-9.17791
▁defeat	-9.17902
▁positive	-9.17968
ate	-9.18052
▁tri	-9.18451
▁Peter	-9.18621
▁church	-9.18792
▁enough	-9.189
▁commercial	-9.18954
▁Brown	-9.1897
ium	-9.19077
▁according	-9.19399
▁above	-9.19446
ll	-9.19471
▁recording	-9.19506
▁Roman	-9.19543
▁India	-9.19629
▁score	-9.19726
os	-9.19844
▁ended	-9.19894
do	-9.19908
▁beginning	-9.19956
▁others	-9.2007
▁Game	-9.20083
▁winds	-9.20107
▁relative	-9.2025
▁told	-9.20258
▁going	-9.20375
▁additional	-9.20437
▁prevent	-9.20486
▁1990	-9.20546
▁Company	-9.20734
▁person	-9.20739
▁Richard	-9.20822
▁section	-9.20935
▁appoint	-9.21123
line	-9.21159
v	-9.21328
▁center	-9.21336
▁response	-9.21558
▁required	-9.21605
▁cost	-9.21712
F	-9.21752
▁give	-9.2187
▁Z	-9.21977
▁b	-9.22184
ke	-9.2219
▁College	-9.22194
▁interview	-9.22235
mi	-9.22276
▁coast	-9.22325
▁pressure	-9.22364
▁Germany	-9.22411
▁itself	-9.22422
▁Church	-9.22485
▁evidence	-9.22546
ah	-9.22569
▁sometime	-9.22631
▁NY	-9.22642
▁brother	-9.22741
▁cut	-9.2281
▁elements	-9.22862
▁60	-9.22919
▁despite	-9.22952
ey	-9.22971
▁Force	-9.2298
▁travel	-9.23055
▁spen	-9.23229
lin	-9.23367
▁village	-9.23378
▁Bay	-9.23443
▁develop	-9.23471
▁Hill	-9.23562
£	-9.23617
▁?	-9.23625
▁protect	-9.23675
▁idea	-9.23723
▁red	-9.23768
ga	-9.2384
▁king	-9.2405
▁approach	-9.24201
▁consist	-9.24298
▁serve	-9.24363
▁musical	-9.24383
▁international	-9.24718
▁poor	-9.24726
▁UK	-9.24758
▁fact	-9.24799
ha	-9.24824
▁material	-9.24847
▁cross	-9.24852
▁So	-9.2497
▁election	-9.25005
ler	-9.2503
▁Mar	-9.25037
com	-9.25089
▁Western	-9.25188
I	-9.25258
▁plan	-9.25279
▁future	-9.25339
ful	-9.25342
▁Final	-9.25507
▁recent	-9.25616
▁sell	-9.25663
▁enter	-9.25909
▁Soviet	-9.25922
▁rule	-9.26072
▁Times	-9.261
▁produce	-9.26101
▁host	-9.26132
▁increase	-9.26141
▁program	-9.26311
▁reviews	-9.26364
▁football	-9.2649
▁female	-9.26664
▁police	-9.26791
der	-9.26934
▁magazine	-9.26994
▁whom	-9.27023
▁suffer	-9.27068
▁Championship	-9.27131
▁That	-9.2714
▁past	-9.27154
go	-9.27333
ial	-9.27373
▁media	-9.27451
▁already	-9.2757
li	-9.2761
▁loss	-9.27899
▁report	-9.2802
▁bridge	-9.2807
▁attend	-9.28094
▁structure	-9.28218
▁1970	-9.28281
G	-9.28296
▁Most	-9.28302
▁Los	-9.28432
▁feature	-9.2848
▁unit	-9.28644
▁carri	-9.28704
▁western	-9.28788
▁1980	-9.28802
▁Britain	-9.2884
▁meeting	-9.2885
▁type	-9.29144
▁earn	-9.29158
▁park	-9.29276
▁Christian	-9.29347
▁study	-9.29386
field	-9.29657
▁president	-9.29673
ni	-9.29718
▁money	-9.29763
▁bring	-9.29898
▁question	-9.29934
▁35	-9.30024
▁especial	-9.30123
▁food	-9.3015
▁fleet	-9.3018
▁summer	-9.30273
▁Later	-9.30413
▁Awards	-9.30416
▁market	-9.30522
▁Lake	-9.3056
▁specific	-9.30565
▁river	-9.30648
▁radio	-9.30795
▁Virginia	-9.30897
▁want	-9.3106
▁might	-9.31165
▁community	-9.31216
ya	-9.31258
▁estimated	-9.31307
▁provide	-9.31342
ak	-9.31355
▁select	-9.31401
▁eastern	-9.31602
▁audience	-9.31656
sh	-9.31706
▁1999	-9.31742
ca	-9.31888
▁Early	-9.32172
▁conduct	-9.32216
way	-9.32239
▁actual	-9.32256
▁date	-9.32451
▁Love	-9.32503
P	-9.32512
▁propos	-9.32522
▁becoming	-9.32524
▁larger	-9.32567
▁research	-9.32586
at	-9.32747
▁states	-9.32996
ized	-9.33068
▁percent	-9.33131
▁ball	-9.33262
▁latter	-9.33398
▁personal	-9.33571
▁writer	-9.33628
▁defeated	-9.33704
▁brief	-9.33789
▁division	-9.33896
▁Rock	-9.33913
▁Ka	-9.33915
▁Jackson	-9.33969
▁winning	-9.34029
▁Lord	-9.3404
▁God	-9.34173
▁practice	-9.34254
▁private	-9.34378
O	-9.34422
▁certain	-9.34451
ship	-9.34476
▁Grand	-9.34503
▁groups	-9.34543
▁If	-9.34563
ot	-9.3459
▁referr	-9.34803
▁Edward	-9.35098
▁staff	-9.35158
▁entered	-9.35263
▁daughter	-9.3535
▁amount	-9.3549
▁fall	-9.35501
▁lines	-9.35624
ten	-9.35674
▁Up	-9.35685
▁stay	-9.35688
▁leaving	-9.35697
▁Spanish	-9.35706
▁Club	-9.35893
▁movement	-9.36017
▁students	-9.36109
▁80	-9.36169
▁seem	-9.36195
▁limited	-9.3632
▁destroyed	-9.36454
▁self	-9.36503
▁vote	-9.36551
▁elect	-9.3657
ville	-9.36716
▁But	-9.36781
▁Ne	-9.3684
▁Association	-9.36851
▁Di	-9.37064
▁tell	-9.37087
▁Second	-9.37111
▁manager	-9.37194
▁overall	-9.37209
▁Ko	-9.37288
▁1960	-9.37382
▁course	-9.3741
T	-9.37422
▁Party	-9.3749
▁Council	-9.37699
▁pair	-9.37782
▁effects	-9.37792
▁our	-9.37935
▁language	-9.37966
▁Queen	-9.37973
▁Day	-9.37991
lo	-9.38098
▁regular	-9.38161
▁broadcast	-9.38301
▁running	-9.38333
▁professional	-9.3835
▁intended	-9.38436
ina	-9.38564
▁Chicago	-9.38581
▁natural	-9.38867
▁Chinese	-9.38928
▁pay	-9.3896
▁effect	-9.38998
ki	-9.39306
▁1998	-9.39348
▁married	-9.39432
▁Con	-9.3952
▁Don	-9.39649
▁Many	-9.39651
▁producer	-9.39818
▁child	-9.39865
▁operat	-9.39922
▁know	-9.4005
▁Russian	-9.4008
▁forward	-9.40223
▁Ra	-9.40342
▁hard	-9.40354
▁traditional	-9.40434
▁scenes	-9.40688
▁press	-9.4083
▁Mark	-9.41018
▁critical	-9.41059
▁trial	-9.41075
▁Mary	-9.41099
ier	-9.41306
▁subject	-9.41324
▁planned	-9.41425
▁And	-9.41426
▁centre	-9.41463
▁increasing	-9.4157
ko	-9.41702
▁Pacific	-9.41762
▁active	-9.41777
▁commission	-9.41903
▁captured	-9.41917
▁longer	-9.41928
▁compared	-9.41978
▁test	-9.41984
▁friend	-9.42039
▁higher	-9.42112
▁Johnson	-9.42133
▁living	-9.42138
▁approximately	-9.42148
ger	-9.42173
▁guitar	-9.42199
▁parts	-9.42215
▁script	-9.4222
▁fifth	-9.42417
▁believe	-9.42451
▁History	-9.4249
▁themselves	-9.42491
▁singer	-9.42573
▁leader	-9.42581
▁done	-9.4261
▁related	-9.42719
▁leave	-9.42749
io	-9.42793
▁Billboard	-9.43162
▁gold	-9.43223
▁grant	-9.43481
ard	-9.43496
▁thus	-9.43507
▁coach	-9.4353
▁Canadian	-9.43594
▁rights	-9.43647
▁share	-9.43717
▁prior	-9.43739
▁woman	-9.4376
▁45	-9.43888
▁fans	-9.43948
▁probabl	-9.44183
ana	-9.44203
▁whether	-9.44346
▁sub	-9.44379
▁300	-9.44446
▁Squadron	-9.4452
▁think	-9.4463
▁supported	-9.44681
▁deal	-9.44883
▁soldiers	-9.44886
▁Since	-9.44949
▁drive	-9.44996
▁China	-9.45023
▁location	-9.45059
R	-9.45077
▁copies	-9.45117
greed	-9.45194
▁1997	-9.45211
▁typical	-9.45332
▁Atlantic	-9.45381
▁offer	-9.45453
▁double	-9.45536
ber	-9.45568
▁advance	-9.45593
▁separate	-9.45671
▁trade	-9.45689
▁model	-9.45735
▁lyrics	-9.45746
▁deep	-9.45771
▁Both	-9.45934
▁operations	-9.45944
▁rate	-9.45949
▁countries	-9.45952
▁Sa	-9.46099
▁mention	-9.4615
▁via	-9.46154
▁board	-9.46177
▁Florida	-9.4625
▁shows	-9.4626
▁Pro	-9.4629
▁pop	-9.46306
ck	-9.46346
▁cm	-9.46408
▁Po	-9.46429
ford	-9.46431
▁70	-9.46449
▁Highway	-9.46501
▁wind	-9.46556
nother	-9.46618
▁request	-9.46651
▁Green	-9.468
▁pilot	-9.46876
▁fell	-9.46914
▁films	-9.46924
mo	-9.46949
6	-9.47124
▁minute	-9.47214
▁plot	-9.47254
▁port	-9.47356
▁Italian	-9.4739
▁Li	-9.47499
▁stop	-9.47569
▁exist	-9.4762
▁mixed	-9.47623
W	-9.47811
▁ran	-9.47818
▁expand	-9.47821
▁Texas	-9.47853
▁portion	-9.47916
▁removed	-9.47978
▁historian	-9.48075
ab	-9.48106
▁health	-9.48141
▁always	-9.48288
▁status	-9.48322
▁capital	-9.48369
▁Center	-9.48379
▁reduc	-9.48388
ang	-9.48419
▁metal	-9.4852
▁Do	-9.48561
▁network	-9.48575
▁flight	-9.48577
▁stars	-9.48669
ut	-9.48792
gg	-9.49055
▁Big	-9.4911
▁Jack	-9.49112
op	-9.49309
▁Film	-9.49322
▁key	-9.49325
▁got	-9.4952
▁e	-9.4959
▁something	-9.49715
▁Africa	-9.49729
▁officers	-9.50011
ches	-9.50053
▁Martin	-9.50075
▁account	-9.50112
▁avoid	-9.50182
kin	-9.50185
▁majority	-9.50237
▁Year	-9.506
▁tons	-9.50651
▁screen	-9.50656
▁hour	-9.50733
▁Sun	-9.50928
▁refus	-9.51002
▁offered	-9.51012
▁Or	-9.51053
▁problems	-9.51077
▁tracks	-9.51148
▁access	-9.51288
▁damaged	-9.51481
▁Earth	-9.51562
▁composed	-9.51686
▁v	-9.51776
▁nature	-9.51784
▁direction	-9.51825
▁pro	-9.51907
▁Sir	-9.51941
▁Empire	-9.52047
▁potential	-9.5218
ities	-9.52386
▁Central	-9.52434
▁dark	-9.52475
ster	-9.52488
▁plans	-9.52515
▁culture	-9.526
▁Tom	-9.52659
▁32	-9.52676
▁teams	-9.52682
▁respectively	-9.52696
▁numerous	-9.52921
▁1995	-9.52927
▁revealed	-9.52964
▁impact	-9.53
▁Ben	-9.53088
▁III	-9.53163
▁buildings	-9.53171
▁Angeles	-9.5318
▁Ho	-9.53239
▁Tour	-9.53388
▁yet	-9.53531
▁inspired	-9.53552
▁legal	-9.53772
▁word	-9.53887
▁associat	-9.53901
▁minor	-9.53942
im	-9.53945
▁upper	-9.5403
va	-9.54035
▁lived	-9.54112
K	-9.54115
▁moving	-9.5414
▁occurred	-9.54144
▁Test	-9.54171
▁episodes	-9.54345
▁whole	-9.54461
▁Group	-9.54548
▁terms	-9.54548
▁male	-9.54577
▁Car	-9.54582
▁transport	-9.54606
▁launched	-9.54614
▁Lo	-9.54688
▁shown	-9.54721
▁occur	-9.54777
▁depression	-9.54789
time	-9.54803
▁90	-9.54824
▁TV	-9.54874
▁college	-9.54919
▁Ke	-9.54988
▁treat	-9.55025
▁information	-9.55109
▁2016	-9.55111
▁00	-9.5516
▁Over	-9.55184
▁complex	-9.55206
▁1996	-9.5521
▁1950	-9.55245
ac	-9.55251
▁defend	-9.55392
▁goals	-9.55413
▁slow	-9.5548
▁operation	-9.55593
▁Old	-9.55619
▁sales	-9.5565
▁Greek	-9.55705
▁Am	-9.55789
▁g	-9.55845
▁Stone	-9.55851
L	-9.55899
ell	-9.55943
▁Su	-9.56023
▁sister	-9.5621
▁foot	-9.56224
▁severe	-9.56283
▁appears	-9.56348
▁conditions	-9.56349
▁Minister	-9.5645
▁castle	-9.56459
▁officer	-9.56471
up	-9.56501
▁letter	-9.56586
▁border	-9.5661
ated	-9.56656
▁attempted	-9.56721
vo	-9.5673
▁artist	-9.56757
▁75	-9.56806
ite	-9.56822
▁1994	-9.56995
▁services	-9.5701
▁Corps	-9.57031
▁industry	-9.57095
▁commander	-9.57194
▁session	-9.57281
▁issu	-9.57288
▁Du	-9.57387
▁hop	-9.57389
▁heavi	-9.5743
▁display	-9.57449
▁Team	-9.57498
▁assigned	-9.57504
▁feel	-9.57511
▁dead	-9.57543
▁Time	-9.57594
▁Sam	-9.57605
▁standard	-9.5766
▁economic	-9.57683
pe	-9.5772
▁conflict	-9.57723
wood	-9.57724
▁attention	-9.57734
ja	-9.57776
▁yards	-9.57925
▁plant	-9.57982
▁DVD	-9.58073
out	-9.58083
za	-9.58087
▁commented	-9.58125
▁la	-9.58334
▁expected	-9.58404
▁mass	-9.58461
▁moment	-9.585
▁normal	-9.58599
▁Michigan	-9.58636
▁Port	-9.58643
▁education	-9.58782
▁Frank	-9.58801
▁fish	-9.58935
ov	-9.58971
▁dance	-9.59191
▁primary	-9.59204
ence	-9.59208
▁competition	-9.5927
▁Bridge	-9.59533
▁below	-9.59596
▁Ri	-9.59604
▁retain	-9.59755
▁Wales	-9.59763
▁horse	-9.5978
▁stone	-9.59844
▁demand	-9.60044
▁1940	-9.60066
▁closed	-9.6011
▁Na	-9.60142
▁resident	-9.60171
▁scale	-9.60235
di	-9.60385
gen	-9.60396
ow	-9.60503
▁issues	-9.6051
▁distance	-9.60548
▁blood	-9.60656
▁giving	-9.60812
▁concept	-9.60842
▁declared	-9.60844
▁ability	-9.60849
▁Hot	-9.60882
▁African	-9.60884
▁middle	-9.60984
▁religious	-9.61029
▁author	-9.61144
▁Wood	-9.61183
▁Congress	-9.61205
▁Major	-9.61266
▁bill	-9.61267
▁marriage	-9.61294
▁combat	-9.61536
▁rapid	-9.61577
ig	-9.61692
▁Scott	-9.61764
▁draft	-9.61835
▁ultimate	-9.61912
▁science	-9.61957
▁matches	-9.62027
▁effort	-9.62078
▁concert	-9.62132
▁captain	-9.62183
▁nation	-9.62232
▁Chris	-9.62263
▁heart	-9.62309
▁decade	-9.62441
▁read	-9.62474
▁serious	-9.6251
▁kind	-9.62591
▁Saint	-9.62611
▁describe	-9.62645
▁friends	-9.62995
▁Several	-9.63037
▁1992	-9.63101
ek	-9.6311
▁financial	-9.63234
▁Fox	-9.6351
▁edition	-9.63524
▁Zealand	-9.63641
▁energy	-9.63641
▁adopt	-9.63711
▁search	-9.63728
▁movie	-9.63735
▁Pe	-9.63782
▁Mo	-9.63832
ker	-9.63943
▁Fort	-9.64187
▁Super	-9.64273
▁contact	-9.64311
▁build	-9.64549
ong	-9.64668
▁annual	-9.64717
▁constructed	-9.64717
▁receive	-9.64803
▁takes	-9.64811
▁Bill	-9.64936
▁pick	-9.65061
▁Mexico	-9.65174
▁vocals	-9.6525
▁temperature	-9.65287
▁Ar	-9.65313
▁charge	-9.65341
▁chief	-9.6555
▁Hu	-9.6557
▁call	-9.65626
▁Like	-9.65672
▁attacks	-9.65835
▁source	-9.65838
▁defense	-9.65841
▁escape	-9.65915
▁1930	-9.66095
mer	-9.6618
▁Latin	-9.6623
▁transferr	-9.66332
▁fast	-9.66413
aw	-9.66586
▁Madonna	-9.66705
▁cyclone	-9.66731
▁physical	-9.66821
▁box	-9.66855
▁fill	-9.66971
▁Line	-9.6704
▁twenty	-9.6705
▁oil	-9.67103
▁1993	-9.67156
▁Service	-9.67164
▁1991	-9.67194
▁stating	-9.6722
▁Ro	-9.67278
▁fund	-9.67341
▁lot	-9.67374
▁hold	-9.67462
▁directly	-9.67538
▁n	-9.67546
á	-9.67623
▁engine	-9.67709
▁Jones	-9.67712
▁wing	-9.67746
▁highly	-9.67776
▁di	-9.6781
ea	-9.6787
▁wall	-9.67948
▁Ba	-9.67961
▁Department	-9.68001
▁Scotland	-9.68027
tz	-9.68084
▁means	-9.68329
▁bar	-9.68387
▁morning	-9.68428
▁mission	-9.6844
▁argu	-9.6854
▁Infantry	-9.68546
▁r	-9.68627
▁Hurricane	-9.68818
▁ex	-9.6882
▁Van	-9.68847
▁Three	-9.68884
▁yard	-9.68906
▁dropp	-9.68911
▁ending	-9.68925
▁represent	-9.68969
▁executive	-9.68976
▁books	-9.69017
▁Creek	-9.69108
▁Lee	-9.69112
▁meant	-9.69164
▁400	-9.69202
▁Per	-9.69209
▁33	-9.6924
▁camp	-9.69248
▁inside	-9.69298
▁train	-9.69361
▁makes	-9.69371
▁responsible	-9.69471
▁forest	-9.69491
▁figure	-9.69509
▁performances	-9.69659
▁floor	-9.69668
▁managed	-9.6967
▁bad	-9.69747
▁Their	-9.69759
▁Prince	-9.69762
▁us	-9.69787
pa	-9.69794
▁Mac	-9.69834
au	-9.69927
▁enjoy	-9.69929
▁Post	-9.70143
▁kept	-9.70169
▁era	-9.70211
▁Art	-9.70226
▁Catholic	-9.70314
all	-9.70338
▁Life	-9.70477
▁color	-9.70486
quality	-9.70535
▁variety	-9.70608
▁depict	-9.7063
que	-9.7064
▁presented	-9.70758
▁seat	-9.70807
one	-9.70822
em	-9.70836
▁divid	-9.70841
bo	-9.7091
house	-9.7094
▁arrest	-9.70964
▁Men	-9.71068
▁Battalion	-9.71097
ver	-9.71163
chi	-9.71298
▁square	-9.71337
▁Committee	-9.71404
▁Cross	-9.7167
sen	-9.71678
▁notes	-9.71781
▁count	-9.71866
ron	-9.71942
▁marked	-9.72222
▁theme	-9.72303
wa	-9.72344
U	-9.724
▁Records	-9.72416
per	-9.72466
▁resulting	-9.72472
▁Live	-9.72548
▁formation	-9.72605
▁efforts	-9.72618
▁oppos	-9.72636
▁hundred	-9.72695
▁broke	-9.72702
▁meaning	-9.72732
▁criticiz	-9.72745
▁sex	-9.72832
▁1942	-9.72903
▁portray	-9.73011
con	-9.73074
▁presence	-9.73089
▁piece	-9.73094
▁multiple	-9.73186
▁federal	-9.73224
▁metres	-9.73295
▁engage	-9.73333
▁begins	-9.73347
ors	-9.73407
ical	-9.73441
▁Society	-9.73538
▁reflect	-9.73593
▁situation	-9.73734
▁collection	-9.73766
▁Jim	-9.73776
▁More	-9.73787
▁Southern	-9.7384
▁content	-9.73876
▁Ma	-9.73963
▁concern	-9.73977
▁Se	-9.7407
▁speech	-9.74182
▁write	-9.74189
▁Da	-9.74192
ade	-9.74222
▁royal	-9.74273
po	-9.74406
▁Stephen	-9.74444
▁viewers	-9.74474
▁traffic	-9.74521
▁foreign	-9.74609
▁contrast	-9.74683
▁levels	-9.747
▁enemy	-9.74747
▁secret	-9.74759
▁Oxford	-9.74762
▁extreme	-9.74816
▁winter	-9.74823
▁Mr	-9.74868
▁Captain	-9.74886
▁Louis	-9.74981
▁Joseph	-9.74987
▁Ca	-9.75017
▁words	-9.75057
▁value	-9.75061
▁36	-9.75104
▁blue	-9.75134
town	-9.75163
▁fear	-9.75231
▁Republican	-9.75397
▁Chief	-9.75585
▁actor	-9.75605
▁Te	-9.7561
▁target	-9.75637
▁Boston	-9.75642
▁link	-9.75688
▁Ta	-9.75781
▁inch	-9.75791
▁Under	-9.75803
▁reason	-9.75866
▁quarter	-9.75869
▁records	-9.75891
▁add	-9.75893
▁concluded	-9.75904
▁Manchester	-9.76
mp	-9.76005
▁prominent	-9.76096
▁Harrison	-9.76098
▁weaken	-9.76158
▁setting	-9.7616
▁property	-9.76199
▁scoring	-9.76208
▁primarily	-9.7623
▁block	-9.76234
▁Brigade	-9.76237
▁independent	-9.76254
▁stories	-9.76261
om	-9.76271
ho	-9.76279
▁risk	-9.76336
▁job	-9.76426
▁Cor	-9.7644
ecause	-9.76451
han	-9.76468
▁positions	-9.76494
▁extensive	-9.76503
▁Jo	-9.76562
▁starting	-9.76608
▁Regiment	-9.7663
▁Before	-9.76644
▁Pre	-9.76664
▁37	-9.76733
▁hospital	-9.76779
▁Sch	-9.76817
▁rating	-9.76817
▁Har	-9.76942
▁Paris	-9.7696
▁Vietnam	-9.76997
▁couple	-9.77027
▁Little	-9.77112
▁observed	-9.77131
ization	-9.77201
▁strength	-9.77245
▁1944	-9.77328
▁cases	-9.7736
▁rough	-9.77445
▁Y	-9.77469
▁Home	-9.77483
▁invasion	-9.77564
▁tournament	-9.77564
▁sense	-9.77653
ure	-9.77705
▁reception	-9.77783
▁things	-9.77866
▁paid	-9.7788
ru	-9.77933
▁incident	-9.77934
▁appeal	-9.78062
▁Un	-9.78098
▁companies	-9.78105
▁don	-9.78308
▁38	-9.78362
ius	-9.78363
he	-9.78439
▁convert	-9.78494
▁meet	-9.78563
▁say	-9.78645
▁slightly	-9.78694
▁mind	-9.78729
▁historical	-9.78881
▁Series	-9.78919
well	-9.7902
▁document	-9.79021
▁Vi	-9.79115
ji	-9.79122
▁powerful	-9.79123
▁flag	-9.79164
▁onto	-9.79169
▁identifi	-9.7923
▁animals	-9.7925
▁BBC	-9.79456
▁parents	-9.79497
ese	-9.79528
▁reject	-9.79692
▁maximum	-9.79868
▁innings	-9.79962
▁draw	-9.79989
▁houses	-9.80027
▁today	-9.80123
▁Young	-9.80216
▁Long	-9.80243
ng	-9.80286
▁34	-9.80313
▁assist	-9.80412
▁Academy	-9.80418
hu	-9.8047
▁1920	-9.80493
mar	-9.80506
▁policy	-9.80521
▁Museum	-9.80608
tro	-9.80611
▁1945	-9.80661
▁1941	-9.80791
▁designated	-9.80821
▁disease	-9.80843
▁establish	-9.80872
▁society	-9.80887
▁struck	-9.80903
▁aid	-9.80906
fer	-9.80951
▁discuss	-9.80982
▁Entertainment	-9.8099
▁schools	-9.81113
▁ice	-9.81138
ists	-9.81285
▁reference	-9.81356
▁activity	-9.81425
ran	-9.81472
▁combined	-9.81487
▁Law	-9.81634
▁raise	-9.8164
▁49	-9.81642
tor	-9.81711
▁participat	-9.8173
▁Italy	-9.81793
▁battleship	-9.81797
▁capture	-9.81809
▁label	-9.81834
▁thousand	-9.81892
▁organization	-9.81971
▁Ha	-9.81995
▁naval	-9.82006
▁stand	-9.82045
▁Ni	-9.82085
oc	-9.82135
▁attempts	-9.82183
▁Avenue	-9.82233
▁opportunit	-9.823
▁background	-9.82483
▁writers	-9.8262
▁calling	-9.82664
▁Williams	-9.82702
▁governor	-9.82772
▁Production	-9.82791
▁your	-9.82876
▁railway	-9.82987
▁weather	-9.83086
▁talk	-9.83103
▁nominated	-9.83119
7	-9.83156
▁challenge	-9.83165
▁tax	-9.83329
▁succeed	-9.83342
▁Bar	-9.8338
▁Ireland	-9.83387
▁Though	-9.83464
▁Parliament	-9.83468
▁treatment	-9.83572
▁Games	-9.83659
▁raid	-9.83685
▁push	-9.83768
▁Show	-9.8379
▁husband	-9.83794
▁k	-9.83798
▁Ver	-9.83817
▁150	-9.83829
▁image	-9.83834
▁ring	-9.83866
ino	-9.83893
▁proved	-9.83916
▁confirmed	-9.83961
▁promoted	-9.8399
▁murder	-9.84173
▁Victoria	-9.84184
▁cap	-9.84195
▁names	-9.84222
▁eye	-9.84455
▁surrounding	-9.84552
▁Republic	-9.84555
▁widely	-9.84574
▁1989	-9.84577
pp	-9.84582
▁native	-9.84589
▁sough	-9.84599
▁visual	-9.84676
raised	-9.84745
▁coming	-9.84777
▁owned	-9.84791
ung	-9.84794
▁1943	-9.84895
▁explained	-9.84897
▁numbers	-9.84917
▁rise	-9.84979
▁en	-9.84998
▁begin	-9.85025
▁fan	-9.85084
▁sixth	-9.8515
▁weight	-9.85163
▁county	-9.85187
▁forms	-9.85312
▁student	-9.85336
▁effective	-9.85344
▁Tropical	-9.85442
ee	-9.85515
▁district	-9.85586
▁sexual	-9.85661
▁leg	-9.85761
▁Q	-9.85848
▁farm	-9.85903
▁formal	-9.85983
▁organiz	-9.8601
don	-9.86021
▁w	-9.86077
▁website	-9.86121
▁sources	-9.86128
▁cities	-9.8617
berg	-9.8619
▁suit	-9.86206
▁passing	-9.86228
▁seek	-9.86256
▁soundtrack	-9.86307
gi	-9.86313
▁choice	-9.86322
▁attract	-9.86324
ther	-9.86326
▁Valley	-9.86379
ze	-9.86391
▁sail	-9.86406
▁armor	-9.86473
che	-9.86497
▁save	-9.86499
ny	-9.86552
▁expressed	-9.8661
▁gas	-9.86618
▁true	-9.86651
bb	-9.86703
▁Chi	-9.86705
▁matter	-9.86727
more	-9.86786
▁artillery	-9.8682
▁sides	-9.86919
▁con	-9.86932
▁Lu	-9.86972
▁thick	-9.86977
▁fuel	-9.87
▁agreement	-9.87019
▁Dutch	-9.8712
▁reign	-9.87152
▁theory	-9.87331
▁Korean	-9.87409
▁big	-9.87464
▁artists	-9.87517
▁kg	-9.87526
▁Mu	-9.8756
un	-9.87662
▁edge	-9.8772
our	-9.87726
▁becomes	-9.87761
▁care	-9.87831
▁Football	-9.87934
▁Top	-9.88201
▁Ga	-9.88235
▁Carolina	-9.88236
hi	-9.88262
▁actions	-9.88292
▁Ten	-9.88294
lan	-9.8857
▁alone	-9.88582
▁failure	-9.88595
▁senior	-9.88661
ise	-9.88688
▁apparent	-9.88709
▁says	-9.88727
tra	-9.88734
▁Governor	-9.88742
▁detail	-9.88756
▁negative	-9.88758
▁What	-9.88824
▁sp	-9.8883
▁honor	-9.88835
▁Col	-9.88906
▁coin	-9.88944
▁studies	-9.88956
▁kilometre	-9.89011
▁Fleet	-9.89071
▁council	-9.89091
▁advanc	-9.89296
▁ahead	-9.89324
▁spread	-9.89361
▁weapons	-9.89402
ap	-9.89415
▁green	-9.89485
▁Ocean	-9.89491
▁Pa	-9.89516
▁injury	-9.89556
▁equipment	-9.89571
ised	-9.89581
▁machine	-9.8963
▁counter	-9.89682
jo	-9.89728
▁Civil	-9.89747
▁Bi	-9.89749
▁walk	-9.8975
▁birth	-9.89806
▁represented	-9.89873
▁Bond	-9.89879
▁contribut	-9.90047
▁Tech	-9.90052
▁Si	-9.90139
▁lane	-9.90214
▁Daniel	-9.90313
▁guest	-9.90347
▁contemporary	-9.9041
▁growth	-9.9054
▁medical	-9.9062
▁composition	-9.90634
head	-9.90711
▁Gold	-9.90742
▁except	-9.90789
▁Duke	-9.90846
▁Light	-9.90859
▁Northern	-9.90879
▁laid	-9.9088
▁Homer	-9.90899
▁Bur	-9.90917
▁championship	-9.90955
▁fired	-9.90961
▁Castle	-9.91162
▁spring	-9.91173
▁hair	-9.91225
▁destroy	-9.91242
▁officials	-9.91244
▁District	-9.91284
▁Government	-9.91301
ft	-9.91312
▁Storm	-9.9135
ph	-9.91394
▁Prime	-9.91431
▁improv	-9.91432
▁Operation	-9.91562
▁split	-9.91627
▁interchange	-9.91643
▁Song	-9.91649
▁crowd	-9.91692
▁offensive	-9.9184
▁northeast	-9.91868
▁problem	-9.91963
▁committee	-9.92075
▁computer	-9.92078
▁activities	-9.92177
ach	-9.92187
▁55	-9.92305
▁affected	-9.92315
▁Ti	-9.92332
▁Field	-9.92334
▁achiev	-9.92355
▁killing	-9.92645
▁civil	-9.92671
▁billion	-9.92752
▁drama	-9.92774
▁Dan	-9.92776
▁sequence	-9.9279
▁Admiral	-9.92946
▁Short	-9.92996
ven	-9.93004
▁condition	-9.93005
▁degree	-9.93012
ever	-9.93106
▁rat	-9.93124
▁boat	-9.93127
▁1987	-9.93184
▁prisoner	-9.93203
▁System	-9.9321
we	-9.93219
▁Scottish	-9.9326
▁worldwide	-9.9328
▁aspect	-9.93293
▁beat	-9.93294
ou	-9.93366
▁flood	-9.93366
▁1988	-9.93401
ney	-9.93502
▁territory	-9.93543
ud	-9.93629
▁Can	-9.9364
▁broad	-9.93664
▁Land	-9.93763
▁appearances	-9.93773
▁connect	-9.938
▁600	-9.93805
▁Background	-9.93845
▁rainfall	-9.93862
▁48	-9.93887
▁Blue	-9.93912
▁Sal	-9.93973
▁favor	-9.94014
▁fellow	-9.94039
▁figures	-9.94064
▁trying	-9.94073
▁Fantasy	-9.94095
▁proposal	-9.94151
▁famous	-9.94229
▁chance	-9.94246
wise	-9.94262
▁Of	-9.94311
▁doing	-9.94339
▁tail	-9.94436
▁universit	-9.94569
uk	-9.94575
▁Senate	-9.94622
▁supply	-9.947
▁chosen	-9.94722
▁Coast	-9.94769
▁crash	-9.94838
▁twice	-9.94886
▁vocal	-9.94933
▁Middle	-9.94938
▁Chart	-9.94976
▁aim	-9.94987
▁41	-9.94998
▁passe	-9.95049
▁Will	-9.95094
▁BC	-9.95105
▁Polish	-9.9511
▁newspaper	-9.95143
▁acre	-9.9516
▁bank	-9.95204
▁pieces	-9.95222
J	-9.95245
▁frequently	-9.95248
▁Christmas	-9.95397
▁address	-9.95397
▁consecutive	-9.95428
▁Eastern	-9.95539
▁therefore	-9.95624
▁expedition	-9.9577
▁Festival	-9.95786
▁opinion	-9.95816
▁grew	-9.95861
▁Far	-9.95868
▁squadron	-9.95872
▁extra	-9.95886
fi	-9.95974
▁estate	-9.96027
▁Mike	-9.96136
▁Andrew	-9.96138
▁trees	-9.96249
▁Studios	-9.96272
▁Wilson	-9.9629
▁Joe	-9.96325
▁birds	-9.96372
▁Allied	-9.96376
lor	-9.96444
▁herself	-9.96445
▁Pennsylvania	-9.96453
▁purpose	-9.96466
▁Taylor	-9.96487
vi	-9.96582
led	-9.96582
▁plays	-9.96626
▁wounded	-9.96627
▁expansion	-9.96659
▁assault	-9.96681
ev	-9.96711
▁Gu	-9.96744
▁39	-9.96852
▁simply	-9.96952
▁Mount	-9.9699
▁finish	-9.97013
▁respect	-9.97071
vin	-9.97082
▁47	-9.97085
ski	-9.97103
▁leaders	-9.97115
▁storyline	-9.97345
▁1986	-9.97361
losing	-9.97432
▁chose	-9.97457
▁deck	-9.97602
▁Elizabeth	-9.9761
▁Alexander	-9.97611
▁nothing	-9.97645
▁encounter	-9.97651
▁progress	-9.9772
▁camera	-9.97725
▁firm	-9.97733
▁authority	-9.9774
▁Each	-9.97807
▁unknown	-9.97819
▁Four	-9.9789
▁tree	-9.97923
▁tower	-9.97941
▁trip	-9.97984
▁silver	-9.9801
▁semi	-9.98133
▁Va	-9.98169
stead	-9.98181
ai	-9.98199
▁65	-9.98245
▁simple	-9.98255
▁Pi	-9.98459
▁64	-9.98491
▁miss	-9.98518
ini	-9.9854
▁standing	-9.98541
▁inform	-9.98555
▁ma	-9.98568
▁opposition	-9.98591
▁environment	-9.98641
▁Night	-9.98689
tre	-9.98856
▁42	-9.98873
bu	-9.98894
▁Wall	-9.98902
▁happen	-9.98906
▁growing	-9.98928
ward	-9.98978
▁bit	-9.98981
▁fiction	-9.98986
▁workers	-9.99051
▁comes	-9.99065
ory	-9.99084
▁paper	-9.99109
▁versions	-9.99166
▁threat	-9.99174
▁steam	-9.99338
▁Doctor	-9.99365
ara	-9.99443
▁basis	-9.99456
▁Due	-9.99472
▁capacity	-9.99504
▁occupie	-9.99533
▁heard	-9.99595
▁shape	-9.99605
▁text	-9.99623
▁crossing	-9.99624
▁Mor	-9.99661
▁advantage	-9.99734
▁serving	-9.99765
▁master	-9.99776
▁arms	-9.998
▁Reception	-9.99826
mb	-9.9985
▁walls	-9.99853
▁Further	-9.99896
▁starr	-9.99934
▁Railway	-9.99967
▁budget	-10.0002
ib	-10.0005
▁Irish	-10.0008
▁exchange	-10.0013
▁Christ	-10.0017
▁shift	-10.0018
ett	-10.0032
▁results	-10.0034
▁task	-10.0038
port	-10.0039
▁Institute	-10.004
▁table	-10.0041
▁Harry	-10.0044
▁pull	-10.0046
▁abandoned	-10.0048
tan	-10.0064
▁roof	-10.0064
▁Spain	-10.0066
8	-10.0067
▁protest	-10.0069
▁accus	-10.0071
▁leaves	-10.0077
▁adult	-10.0082
▁message	-10.0091
▁administration	-10.0106
▁northwest	-10.0109
▁Jersey	-10.0111
▁flying	-10.0111
▁here	-10.0122
possibly	-10.0131
▁horses	-10.0134
let	-10.0139
ub	-10.014
tter	-10.0146
▁ch	-10.015
▁reports	-10.015
▁Bob	-10.0152
▁beyond	-10.0152
▁hands	-10.0155
▁criticism	-10.0155
▁convince	-10.017
▁launch	-10.0171
▁girl	-10.0171
▁wait	-10.0186
▁debate	-10.019
▁Commission	-10.0191
▁unique	-10.0201
▁kill	-10.0203
▁throw	-10.0203
stone	-10.0205
▁ha	-10.0217
▁Town	-10.0224
▁narrow	-10.0225
▁agree	-10.0228
▁1939	-10.0229
▁contained	-10.0235
▁cell	-10.0236
▁bodies	-10.0245
▁creation	-10.0253
▁mile	-10.0255
▁retreat	-10.0258
▁Public	-10.026
▁systems	-10.0269
▁Columbia	-10.0269
▁Ed	-10.0272
▁Ju	-10.0272
▁hall	-10.0275
▁reduce	-10.0281
▁sports	-10.0281
▁En	-10.0282
▁learn	-10.0293
▁animal	-10.0301
▁Ken	-10.0304
▁digital	-10.0311
▁Arthur	-10.0313
▁52	-10.0318
▁Tri	-10.0318
▁torpedo	-10.0326
▁phase	-10.033
iv	-10.033
▁grow	-10.0331
▁hir	-10.0337
tion	-10.0339
▁creating	-10.0341
▁Earl	-10.0342
▁function	-10.0343
▁article	-10.0349
▁data	-10.0356
▁actors	-10.0361
▁retired	-10.0361
▁personnel	-10.0363
▁hope	-10.0365
▁cultural	-10.0368
▁Out	-10.0369
▁warning	-10.037
▁planet	-10.0385
▁1985	-10.0386
ps	-10.0388
▁purchas	-10.0391
▁Asia	-10.0395
▁Cambridge	-10.0396
▁dis	-10.04
▁wave	-10.0404
ria	-10.0404
▁opera	-10.0404
▁1968	-10.0408
▁selection	-10.041
▁Sp	-10.0411
▁Han	-10.0412
▁arrange	-10.0415
▁Board	-10.0416
▁i	-10.042
▁necessary	-10.0422
▁editor	-10.0422
▁Ru	-10.0425
▁provid	-10.0425
▁Meanwhile	-10.0428
▁recogniz	-10.0428
ator	-10.0433
▁rain	-10.0435
ata	-10.0436
fa	-10.0438
▁infantry	-10.0441
▁twelve	-10.0464
ff	-10.0465
▁gross	-10.0474
▁stations	-10.0476
▁Also	-10.0483
▁CD	-10.0489
ez	-10.0489
▁producers	-10.049
▁street	-10.0494
▁46	-10.0496
▁surrender	-10.0496
▁wood	-10.05
▁Bell	-10.0503
▁leadership	-10.0503
back	-10.0506
▁improve	-10.0507
▁Point	-10.0508
▁accompani	-10.0508
▁Tu	-10.0509
▁mode	-10.0509
ö	-10.0509
▁Ohio	-10.0511
▁repeated	-10.0512
▁rear	-10.0514
▁comic	-10.0515
▁Bu	-10.0515
▁management	-10.0525
▁parallel	-10.0528
▁Walter	-10.0532
▁armed	-10.0533
▁conference	-10.0541
▁replace	-10.0543
▁threaten	-10.0545
▁landing	-10.0551
▁super	-10.0557
▁43	-10.0561
▁Order	-10.0569
▁battalion	-10.0572
▁ancient	-10.0573
▁description	-10.0575
▁broken	-10.0582
▁height	-10.0585
▁peace	-10.0589
▁pitch	-10.0591
X	-10.0594
▁Secretary	-10.06
▁element	-10.06
▁fought	-10.0601
gu	-10.0604
▁critic	-10.0609
▁Wa	-10.061
▁bomb	-10.0611
▁composer	-10.0616
▁1984	-10.0623
▁44	-10.0633
▁caught	-10.0638
▁Rose	-10.064
▁defence	-10.064
▁newly	-10.0645
▁permanent	-10.0647
▁Georgia	-10.0649
▁claims	-10.0656
yl	-10.0659
▁holding	-10.0669
▁brown	-10.067
▁motion	-10.0677
her	-10.0678
▁perfect	-10.0679
▁Philadelphia	-10.0681
▁mountain	-10.0683
▁inter	-10.0686
▁Islands	-10.069
▁MD	-10.0691
▁arrival	-10.0691
▁finding	-10.0697
▁alternative	-10.0698
▁contest	-10.0698
work	-10.0702
▁franchise	-10.0708
tin	-10.071
▁Never	-10.0717
▁path	-10.0718
▁reveal	-10.0726
▁Pan	-10.0731
▁tradition	-10.0732
▁acquired	-10.0734
▁row	-10.0734
ku	-10.0736
▁comedy	-10.074
▁Not	-10.0741
▁zone	-10.0742
▁disc	-10.0748
▁investigation	-10.0751
▁Power	-10.0753
9	-10.0756
ica	-10.076
▁didn	-10.0761
ex	-10.0762
▁lives	-10.0769
▁Player	-10.0773
▁SS	-10.0785
▁driver	-10.0788
▁nuclear	-10.0793
▁Grant	-10.0796
▁seventh	-10.0796
▁occasional	-10.0799
▁Ja	-10.08
theles	-10.0805
▁defensive	-10.0805
▁iron	-10.081
▁authorities	-10.081
▁genus	-10.0811
▁headquarters	-10.0822
▁solo	-10.0823
▁security	-10.0829
uc	-10.0831
▁Russia	-10.0833
▁People	-10.0836
▁1967	-10.0837
▁centuries	-10.084
cha	-10.0842
▁canno	-10.0855
▁800	-10.0857
ability	-10.0862
▁Development	-10.0866
▁recommend	-10.0866
▁Its	-10.088
▁Matt	-10.0881
▁vehicles	-10.0884
▁affair	-10.0885
▁breed	-10.089
▁Square	-10.0891
▁determined	-10.0891
▁Among	-10.0894
▁families	-10.0902
▁Who	-10.0903
▁Ku	-10.0905
ax	-10.0905
▁depend	-10.0906
▁dress	-10.0906
▁turret	-10.091
▁controlled	-10.0911
▁household	-10.0915
▁Cha	-10.0917
▁prison	-10.0923
▁refer	-10.093
▁thing	-10.093
cy	-10.093
▁Gi	-10.0945
▁Ottoman	-10.0948
▁temple	-10.0949
▁Office	-10.0951
▁Nintendo	-10.0951
▁Liverpool	-10.0953
▁flat	-10.0954
▁drop	-10.0959
mon	-10.0961
ani	-10.0964
▁paint	-10.0964
▁sh	-10.0966
▁Lewis	-10.0967
ari	-10.0968
▁End	-10.0972
▁guard	-10.0972
▁Lieutenant	-10.0982
▁branch	-10.0992
▁corner	-10.0992
ay	-10.0993
▁Bart	-10.0994
gan	-10.0996
▁let	-10.0998
▁Additional	-10.1002
▁Fi	-10.1003
▁protection	-10.1004
▁try	-10.1011
eg	-10.1012
zi	-10.1014
▁Bre	-10.1016
▁lap	-10.1017
▁dollar	-10.1022
▁singing	-10.1032
▁shooting	-10.1035
ren	-10.1047
cher	-10.1047
▁fruit	-10.1048
shi	-10.1051
▁Bra	-10.1056
ize	-10.1058
▁piano	-10.1063
min	-10.1069
▁Boy	-10.107
▁Part	-10.1076
iz	-10.1079
▁gradual	-10.1081
▁Jewish	-10.1081
▁ideas	-10.1088
▁method	-10.109
▁plants	-10.1091
je	-10.1096
▁Gulf	-10.1098
▁emerg	-10.1098
ile	-10.11
▁SR	-10.1106
▁1983	-10.1112
▁climb	-10.1115
▁brigade	-10.1119
▁mouth	-10.1122
▁Olympic	-10.1126
▁51	-10.1132
▁rare	-10.1139
▁Ex	-10.114
▁appli	-10.1151
▁younger	-10.1152
▁Che	-10.1153
pi	-10.1166
▁Carey	-10.1167
▁1969	-10.117
▁Francisco	-10.117
▁Singapore	-10.1173
▁Good	-10.1173
▁120	-10.1174
▁intensity	-10.1187
▁Anderson	-10.1188
▁1964	-10.119
▁partial	-10.1191
ita	-10.1194
▁flooding	-10.1196
▁Miller	-10.1201
▁quite	-10.1207
▁follows	-10.1211
▁domestic	-10.1217
▁ceremony	-10.1219
▁purchase	-10.1225
▁Cap	-10.1227
▁Emperor	-10.1231
▁carry	-10.1234
▁dedicated	-10.1236
▁watch	-10.1241
▁indicate	-10.1243
val	-10.1262
▁fine	-10.1265
▁arrive	-10.1267
▁1914	-10.127
▁Davis	-10.1278
▁HMS	-10.1278
▁southeast	-10.1279
▁Disney	-10.1288
▁decline	-10.1288
ide	-10.129
▁industrial	-10.1291
▁why	-10.1292
▁Conference	-10.1293
▁travell	-10.1295
▁generation	-10.1303
ology	-10.1304
▁influenc	-10.1304
▁1918	-10.1305
▁Press	-10.1307
▁poll	-10.1308
istic	-10.1313
▁rail	-10.1319
▁volume	-10.1332
▁PlayStation	-10.1336
▁Steve	-10.1337
▁1971	-10.1337
if	-10.1338
▁Sound	-10.1341
▁1982	-10.1344
▁declin	-10.1352
▁Com	-10.1356
▁tall	-10.1358
▁Brian	-10.1362
▁Bas	-10.1379
▁1972	-10.1381
▁1966	-10.1384
▁Jean	-10.1384
▁1979	-10.1388
▁invite	-10.1393
▁Ray	-10.1402
▁Americans	-10.1402
▁kick	-10.1404
▁mounted	-10.1406
▁reaction	-10.1421
▁facilities	-10.1422
▁promotion	-10.1422
▁schedul	-10.1428
▁constant	-10.143
▁accident	-10.1443
▁cold	-10.1445
▁survey	-10.1446
▁principal	-10.1448
▁weak	-10.1449
▁department	-10.1452
ill	-10.1453
▁core	-10.1463
▁escort	-10.1475
▁drawn	-10.1477
▁publication	-10.1477
▁steel	-10.148
▁intersection	-10.1488
▁notable	-10.1489
▁fit	-10.149
▁types	-10.149
▁1965	-10.1495
▁platform	-10.1497
▁straight	-10.1506
▁roads	-10.1515
▁unusual	-10.1523
fe	-10.1528
▁gives	-10.1548
▁surprise	-10.1554
▁flow	-10.1555
▁NHL	-10.1559
▁1975	-10.1563
▁lb	-10.1566
▁Bank	-10.1567
▁analysis	-10.1569
▁tend	-10.1572
▁yellow	-10.1574
▁combination	-10.1575
▁Original	-10.159
▁strike	-10.1596
▁Bowl	-10.16
ble	-10.1604
▁religion	-10.161
▁secure	-10.1616
▁bass	-10.1616
▁f	-10.1623
▁acid	-10.1624
▁Hollywood	-10.1625
▁am	-10.1632
ip	-10.1634
bound	-10.1636
▁Jr	-10.1638
sis	-10.1644
▁Mel	-10.1653
▁Special	-10.1658
▁supporter	-10.1662
▁casualties	-10.1665
▁habitat	-10.1666
▁hotel	-10.1671
▁1974	-10.1676
▁entrance	-10.1677
▁assistant	-10.1688
▁singles	-10.1689
▁Democratic	-10.1708
▁Station	-10.1711
▁cricket	-10.1713
▁1973	-10.1714
▁boats	-10.1724
▁multi	-10.1725
ada	-10.1728
▁Way	-10.174
ping	-10.1755
▁95	-10.1755
▁Between	-10.1762
▁easi	-10.1762
bi	-10.1764
▁du	-10.1769
har	-10.1772
sk	-10.1772
▁Supreme	-10.1777
lock	-10.1779
▁finds	-10.1781
▁coal	-10.1782
▁ca	-10.1783
▁Lady	-10.1784
▁highlight	-10.1786
▁painting	-10.1786
▁1976	-10.1795
▁News	-10.1796
▁economy	-10.18
▁agent	-10.1807
▁Fe	-10.181
▁heat	-10.1813
▁themes	-10.1815
▁equal	-10.1818
▁islands	-10.1821
▁joint	-10.1822
▁defin	-10.1842
▁Colonel	-10.1847
▁provides	-10.1851
▁stock	-10.1856
▁depart	-10.1857
▁passage	-10.1862
▁programme	-10.1862
▁warm	-10.1866
▁locations	-10.1867
▁Ber	-10.1873
▁approved	-10.188
uff	-10.1884
▁85	-10.1886
▁journalist	-10.1887
▁von	-10.1897
▁poem	-10.19
▁eat	-10.1908
tri	-10.1914
▁losses	-10.1915
▁boy	-10.1922
knew	-10.1928
▁basic	-10.1934
▁Sha	-10.1938
▁Women	-10.1938
▁Daily	-10.1938
▁eyes	-10.1943
▁dispute	-10.1944
▁250	-10.1948
▁literature	-10.195
ag	-10.195
▁Summer	-10.1951
▁decide	-10.1951
▁Director	-10.1955
▁exact	-10.1955
▁electric	-10.1956
▁desire	-10.1972
▁reform	-10.1973
▁Gar	-10.1974
▁march	-10.1979
▁garden	-10.1981
▁unsuccessful	-10.1983
▁Book	-10.1983
bar	-10.1984
▁Muslim	-10.1987
▁urban	-10.1989
20	-10.199
▁unlike	-10.1992
off	-10.1999
▁nor	-10.2003
▁prepared	-10.2008
▁Ban	-10.2009
▁fun	-10.201
▁dismiss	-10.2011
▁Ch	-10.2018
▁introduction	-10.2019
▁Simon	-10.2019
either	-10.2024
▁resistance	-10.2025
▁store	-10.2026
▁favour	-10.203
▁Beyoncé	-10.2033
▁responsibilit	-10.2033
ep	-10.2035
▁trains	-10.2039
▁technology	-10.2039
▁Ross	-10.2051
▁reputation	-10.2052
▁Arm	-10.2055
▁anything	-10.2055
pt	-10.2059
▁goes	-10.206
yn	-10.2062
▁Cape	-10.2063
▁symbol	-10.2073
▁calls	-10.2074
▁Pop	-10.2074
▁Par	-10.2078
war	-10.2086
▁significantly	-10.2097
▁gameplay	-10.21
▁skin	-10.2101
▁price	-10.2108
▁Kentucky	-10.2109
▁fashion	-10.2111
▁grade	-10.2112
▁sequel	-10.2118
▁Clark	-10.2122
▁injured	-10.2124
ik	-10.2126
▁praise	-10.2127
▁daily	-10.2129
mm	-10.2131
▁1946	-10.2135
▁rename	-10.2143
▁1981	-10.2143
▁orders	-10.2144
▁stopp	-10.2147
▁turns	-10.2157
▁freeway	-10.2159
▁scientific	-10.216
▁strateg	-10.2161
car	-10.2168
▁Radio	-10.218
▁campus	-10.2181
▁IV	-10.2182
▁popularity	-10.2182
▁Airport	-10.2184
▁perhap	-10.2189
ric	-10.2195
ction	-10.2196
▁limit	-10.2197
▁Lincoln	-10.2199
▁employed	-10.2201
▁consists	-10.2205
▁getting	-10.2207
▁dry	-10.221
▁mean	-10.221
▁extension	-10.2217
▁object	-10.2221
▁channel	-10.2222
▁roles	-10.2224
▁Norway	-10.2225
mann	-10.2225
du	-10.2225
▁van	-10.2225
▁driv	-10.2227
ative	-10.223
pon	-10.2232
▁Ya	-10.2239
▁1917	-10.2243
▁product	-10.2248
▁Pat	-10.2253
▁museum	-10.226
▁note	-10.226
▁drew	-10.2264
▁Golden	-10.2268
▁slave	-10.2276
ged	-10.2277
▁shaped	-10.2278
lon	-10.2288
▁Massachusetts	-10.2289
▁Jay	-10.229
▁transfer	-10.2292
▁distinguish	-10.2296
▁Head	-10.2296
▁Carl	-10.2297
▁structures	-10.2305
▁homes	-10.2327
qui	-10.2327
▁journey	-10.2329
▁Command	-10.2338
▁albums	-10.2339
ect	-10.2348
▁depth	-10.2352
▁settlement	-10.2361
▁settl	-10.2362
▁cited	-10.2364
▁watched	-10.2365
▁54	-10.2376
▁internal	-10.238
▁Water	-10.2382
▁planning	-10.2383
▁reserve	-10.2384
30	-10.2389
▁hip	-10.2391
▁seconds	-10.2392
▁stadium	-10.2397
▁knowledge	-10.2406
▁compet	-10.2408
og	-10.2408
shire	-10.2408
▁possibilit	-10.2413
▁awards	-10.2413
▁1948	-10.2414
▁Video	-10.2423
▁Dark	-10.2425
▁wealth	-10.2428
wi	-10.2432
▁distinct	-10.2434
▁distribution	-10.2434
▁56	-10.2437
▁southwest	-10.2439
▁layer	-10.2442
▁Fire	-10.2443
▁existence	-10.2446
▁missing	-10.2448
nes	-10.245
▁genre	-10.2452
▁register	-10.2456
gon	-10.2467
▁About	-10.2468
▁wish	-10.2485
ura	-10.2486
▁statement	-10.2486
▁connected	-10.2492
▁Imperial	-10.2492
▁rich	-10.2493
coming	-10.2506
▁responded	-10.2506
hr	-10.2511
▁theatre	-10.2516
▁association	-10.2521
▁53	-10.2529
▁sustained	-10.2529
▁1978	-10.2532
▁fresh	-10.2534
▁candidate	-10.2541
ement	-10.2543
▁Moore	-10.2555
▁Main	-10.2562
▁profit	-10.2568
▁surround	-10.2568
▁baseball	-10.2573
▁entitl	-10.2575
▁letters	-10.2575
tal	-10.2578
ix	-10.2581
▁Band	-10.2582
▁buried	-10.2586
rid	-10.2587
▁committ	-10.2592
▁Byzantine	-10.2593
▁Even	-10.2596
▁reading	-10.2599
▁regions	-10.2602
ec	-10.2607
▁moderate	-10.2614
▁recruit	-10.2617
▁Rome	-10.262
▁promote	-10.2624
sch	-10.2625
▁collected	-10.2626
▁Just	-10.2627
▁Justice	-10.2628
▁carrying	-10.2629
▁festival	-10.263
▁1915	-10.2639
qu	-10.2639
▁shoot	-10.264
▁Sunday	-10.2642
▁Olympics	-10.2643
ala	-10.2646
▁medal	-10.2649
▁Naval	-10.2649
▁reasons	-10.265
▁bird	-10.2654
tu	-10.2663
water	-10.2668
▁Play	-10.267
▁landfall	-10.267
▁assum	-10.2672
▁Sydney	-10.2674
lic	-10.2676
▁Age	-10.2676
▁animat	-10.2677
▁safet	-10.2677
ola	-10.2677
qua	-10.2677
▁chain	-10.2688
ane	-10.269
▁Arab	-10.269
king	-10.2693
ious	-10.2695
▁exhibit	-10.2698
▁1977	-10.2701
sky	-10.2703
▁technical	-10.2707
▁Tim	-10.2709
▁Poland	-10.2711
und	-10.2717
▁700	-10.2718
▁earlie	-10.2722
▁Recording	-10.2731
▁Maryland	-10.2732
▁afterward	-10.2735
▁argue	-10.2741
▁bowl	-10.2742
▁learned	-10.2744
▁brand	-10.2745
▁MTV	-10.275
▁scheme	-10.2751
▁wild	-10.2755
▁Simpsons	-10.2759
▁fort	-10.276
▁repair	-10.2761
▁Angel	-10.2767
▁signal	-10.2772
▁rescue	-10.2775
▁winner	-10.2782
▁Eric	-10.2785
▁mar	-10.2785
▁violence	-10.2793
ken	-10.2796
▁credited	-10.2801
▁Kent	-10.2801
▁imp	-10.2803
▁1963	-10.2804
▁turning	-10.2806
▁struggle	-10.2807
▁Inter	-10.2809
ris	-10.2809
▁Theatre	-10.2815
▁coastal	-10.2815
▁Egypt	-10.2815
▁Pen	-10.2833
▁none	-10.2834
capable	-10.2837
ington	-10.2846
▁charts	-10.2849
▁send	-10.2851
▁battery	-10.2852
▁orbit	-10.2855
▁1916	-10.2863
▁Moon	-10.2867
▁buy	-10.2871
▁Kar	-10.2879
▁politics	-10.2883
▁manner	-10.2885
▁cells	-10.2889
▁Gordon	-10.2902
▁supplies	-10.2911
▁independence	-10.2914
▁Alan	-10.292
rew	-10.2929
▁evening	-10.2944
▁bottom	-10.2947
▁transition	-10.2952
uck	-10.2953
▁Mulder	-10.2957
▁Key	-10.296
▁catch	-10.296
lu	-10.2971
▁items	-10.2975
▁classic	-10.2976
most	-10.2978
▁sites	-10.2978
▁76	-10.2978
▁Fa	-10.298
▁brothers	-10.2982
▁glass	-10.2991
▁code	-10.2991
▁FA	-10.2991
▁Stadium	-10.2993
▁Space	-10.2994
af	-10.2999
▁prompt	-10.3001
ians	-10.3004
▁indicated	-10.3016
▁1919	-10.3018
▁rules	-10.3019
▁delivered	-10.3019
▁1962	-10.302
▁Songs	-10.3026
▁showing	-10.3028
▁Ki	-10.3032
▁civilian	-10.3034
▁equipp	-10.3041
ok	-10.3044
▁Albert	-10.3044
▁employee	-10.3047
▁Your	-10.3048
▁Free	-10.3054
▁parties	-10.3062
row	-10.307
▁producing	-10.3071
▁o	-10.308
▁nomination	-10.3084
▁observation	-10.3097
▁Prior	-10.3097
▁exit	-10.3098
▁Research	-10.3101
▁lose	-10.3102
nt	-10.3105
▁premiere	-10.3106
▁flank	-10.3111
dale	-10.3114
▁studi	-10.3114
▁Mad	-10.3115
pped	-10.3117
▁ridge	-10.3119
light	-10.312
▁1938	-10.312
▁frame	-10.3122
▁Sky	-10.3125
▁clean	-10.3131
▁bought	-10.3131
▁da	-10.3132
▁ill	-10.3142
10	-10.3142
▁knots	-10.3143
ella	-10.3147
▁soul	-10.3149
▁crime	-10.3155
▁Critical	-10.3157
▁tank	-10.3169
▁attribut	-10.317
▁replacement	-10.3173
▁essential	-10.3174
hl	-10.3176
▁relief	-10.3185
▁th	-10.3185
▁titles	-10.3186
▁deploy	-10.319
end	-10.3191
▁protein	-10.3192
▁behavior	-10.3199
▁download	-10.3203
▁Sh	-10.3204
▁adapted	-10.3206
▁deriv	-10.321
▁substantial	-10.3214
▁page	-10.3214
▁le	-10.3217
▁hill	-10.3224
▁cars	-10.3227
▁owner	-10.3229
▁shell	-10.3234
borne	-10.3239
▁factor	-10.3246
▁Memorial	-10.3251
í	-10.3254
▁Del	-10.3256
▁kingdom	-10.3261
▁Revolution	-10.3262
▁Iron	-10.3263
▁online	-10.3265
ating	-10.3267
▁controversy	-10.3275
▁models	-10.3275
▁arm	-10.3282
ath	-10.3284
▁partner	-10.3285
▁Beach	-10.3287
▁spirit	-10.329
▁colour	-10.3291
▁equivalent	-10.3292
▁inspiration	-10.3295
▁boundar	-10.3297
▁component	-10.3297
▁academic	-10.33
▁Adam	-10.3308
▁heads	-10.331
▁Forest	-10.331
▁duty	-10.3312
▁Tony	-10.3314
▁bigge	-10.3314
▁projects	-10.3315
▁66	-10.332
▁spot	-10.3322
▁headed	-10.3322
▁powers	-10.3324
▁format	-10.3324
ette	-10.3333
▁stretch	-10.3335
ü	-10.3335
▁continu	-10.3337
▁Jeff	-10.3337
▁1956	-10.3341
▁survived	-10.3342
ries	-10.3343
sha	-10.3347
▁cent	-10.335
▁ago	-10.3351
▁Cal	-10.3352
▁everyth	-10.3357
▁actress	-10.3358
▁engineer	-10.3359
▁Philip	-10.3362
spread	-10.3362
▁recalled	-10.3367
▁Kong	-10.3373
▁entry	-10.3377
▁establishment	-10.3379
▁global	-10.3382
rie	-10.3383
▁sufficient	-10.3384
▁Norman	-10.3385
▁handle	-10.3386
▁Hungarian	-10.3387
▁Fair	-10.3399
▁sun	-10.34
▁Arts	-10.3404
▁57	-10.3409
▁remainder	-10.3414
▁ends	-10.3415
▁details	-10.3416
▁departure	-10.3418
▁Plot	-10.3418
▁worth	-10.3422
▁Douglas	-10.3422
▁airport	-10.3425
▁admitted	-10.3432
▁relations	-10.3437
▁1936	-10.3438
ological	-10.3438
AAF	-10.344
▁Hamilton	-10.3442
▁breeding	-10.3442
red	-10.3444
▁IGN	-10.3449
▁monument	-10.3449
▁convoy	-10.3452
▁dog	-10.3452
▁Shi	-10.3453
▁views	-10.3456
lia	-10.3458
over	-10.3458
▁poet	-10.346
▁hero	-10.3461
▁installed	-10.3467
▁fe	-10.3467
tt	-10.347
▁brain	-10.3477
▁Bush	-10.3478
▁classification	-10.3478
low	-10.3481
▁Singles	-10.3489
▁preparation	-10.3491
▁UTC	-10.3492
▁Back	-10.3492
▁Ham	-10.3492
▁Mountain	-10.3499
▁Adams	-10.35
▁seasons	-10.3501
illa	-10.3502
▁reli	-10.3503
▁income	-10.3514
ien	-10.3519
▁trail	-10.3526
▁fly	-10.3529
▁drug	-10.3532
▁Kennedy	-10.3545
▁chorus	-10.3545
▁Track	-10.3546
▁tanks	-10.3548
▁Dar	-10.3549
▁Science	-10.3553
▁armour	-10.3559
▁1961	-10.3559
▁Death	-10.356
▁intention	-10.3562
ena	-10.3568
▁Howard	-10.357
▁switch	-10.3571
▁union	-10.3576
▁instance	-10.3576
▁emotional	-10.3581
▁meters	-10.3581
▁Dream	-10.3584
▁Vo	-10.3587
unt	-10.359
hood	-10.3599
▁credit	-10.3599
▁NBA	-10.36
▁touch	-10.3602
▁engines	-10.3602
▁58	-10.3603
▁youth	-10.361
▁UN	-10.3614
▁picture	-10.3616
▁Roger	-10.3616
▁rival	-10.3617
ban	-10.3619
▁WWE	-10.3622
▁importanc	-10.363
▁ensure	-10.3635
▁Fame	-10.3635
▁1953	-10.3636
▁Premier	-10.3637
▁bi	-10.3637
▁Today	-10.3644
▁connection	-10.3649
▁sets	-10.3649
▁duties	-10.365
▁Hitler	-10.3651
▁attain	-10.3651
▁rose	-10.3655
▁Military	-10.3655
ack	-10.3656
▁Kim	-10.3657
▁rural	-10.366
▁achieve	-10.3668
▁alter	-10.3669
▁someone	-10.3675
▁Magazine	-10.3676
▁remember	-10.3681
▁solid	-10.3686
▁Sta	-10.3687
▁stages	-10.3691
▁decrease	-10.3691
▁Five	-10.3692
▁Initial	-10.3694
▁eighth	-10.3695
▁Project	-10.3696
▁pattern	-10.3698
▁lift	-10.3705
▁exception	-10.3711
▁speak	-10.3714
▁Indiana	-10.3716
av	-10.3725
▁programs	-10.3725
net	-10.3727
▁identity	-10.3732
▁Design	-10.3732
▁segment	-10.3741
▁Media	-10.3743
▁premier	-10.3743
▁humans	-10.3753
▁champion	-10.3753
ible	-10.3757
▁AD	-10.3758
▁patrol	-10.3761
▁designer	-10.3762
▁Scully	-10.3763
▁writes	-10.3764
▁exercise	-10.3765
▁Tor	-10.3766
▁freedom	-10.3767
var	-10.3769
▁Nick	-10.3769
▁Norwegian	-10.3771
▁recognition	-10.3771
▁measure	-10.3774
▁1947	-10.3775
▁Santa	-10.3776
▁Fu	-10.3784
mal	-10.3788
▁regional	-10.3789
▁conclusion	-10.3792
▁wear	-10.3795
▁products	-10.3801
▁climate	-10.3802
▁generat	-10.3806
▁judge	-10.3813
▁secur	-10.3814
▁delay	-10.3815
▁1958	-10.3816
▁alien	-10.3823
▁Mi	-10.3824
▁express	-10.383
▁130	-10.3831
ula	-10.3835
▁Max	-10.384
▁convention	-10.3842
▁Mexican	-10.3847
▁1910	-10.3849
▁Ve	-10.3855
▁describing	-10.3862
▁sections	-10.3866
▁belt	-10.3866
▁1957	-10.3866
▁Finn	-10.3874
▁dated	-10.3876
▁Assembly	-10.3877
▁enemies	-10.3878
▁Ram	-10.3893
▁waters	-10.3894
▁Down	-10.3896
▁ticket	-10.3896
▁Ryan	-10.3897
▁1937	-10.3898
▁references	-10.3898
▁Hav	-10.3899
▁determine	-10.39
▁certifi	-10.3904
ick	-10.3907
▁memorial	-10.3907
▁drawing	-10.3911
▁160	-10.3928
▁slowly	-10.3938
▁fac	-10.3938
▁Gra	-10.3939
▁Jordan	-10.3941
▁Ann	-10.3944
▁objects	-10.3945
▁Cleveland	-10.3946
▁sight	-10.3949
▁Illinois	-10.3949
▁Master	-10.3949
▁Oregon	-10.3952
▁Rolling	-10.3952
▁Horse	-10.3957
▁Wi	-10.3957
▁minister	-10.3963
▁towns	-10.3963
▁hot	-10.3964
ball	-10.3967
▁restaurant	-10.3967
▁visitor	-10.3968
▁step	-10.3974
▁males	-10.3974
▁classes	-10.398
▁Marine	-10.3981
▁cool	-10.3981
▁chemical	-10.3983
▁Dun	-10.3984
▁Maria	-10.3986
án	-10.3988
▁Germans	-10.3989
▁attached	-10.399
▁surviv	-10.3993
▁regiment	-10.3994
▁Qu	-10.3994
▁origin	-10.4
▁organis	-10.4
▁62	-10.4006
▁Review	-10.4008
▁deem	-10.401
ić	-10.4012
▁Six	-10.4023
▁collect	-10.4028
▁Arsenal	-10.4031
▁cycle	-10.4033
▁Nazi	-10.4033
▁Win	-10.4033
▁Tar	-10.4037
▁correct	-10.4043
▁pack	-10.4047
▁1959	-10.4051
▁circulation	-10.4052
▁atmosphere	-10.4052
ama	-10.4056
ira	-10.4058
▁Family	-10.4058
▁obtained	-10.4066
▁favorite	-10.4068
▁literar	-10.4069
▁Val	-10.4071
▁Stanley	-10.4072
▁Weekly	-10.4073
▁dream	-10.4082
▁acclaim	-10.4082
ign	-10.4083
▁Bruce	-10.4084
▁Dean	-10.4087
▁intelligence	-10.409
▁Third	-10.4093
▁hits	-10.4096
▁print	-10.4097
▁vessels	-10.4098
▁terminus	-10.4101
▁valley	-10.4103
▁foundation	-10.4103
▁operate	-10.4104
ano	-10.4105
▁denied	-10.411
▁Kevin	-10.4115
▁interested	-10.4116
▁lay	-10.4117
▁Mediterranean	-10.4119
▁Beatles	-10.4128
▁pit	-10.413
▁wearing	-10.4133
▁successor	-10.4134
SBN	-10.4136
▁opposite	-10.414
▁moral	-10.4149
▁lands	-10.4152
ice	-10.4154
▁insist	-10.4155
▁1955	-10.4156
▁Tan	-10.4156
▁Andy	-10.4157
▁supposed	-10.4157
▁1954	-10.4164
▁Bristol	-10.4165
▁news	-10.4168
▁Jan	-10.4168
▁participate	-10.4171
gue	-10.4171
▁Channel	-10.4171
▁Morgan	-10.4172
▁Release	-10.4173
▁Bishop	-10.4176
▁criminal	-10.4179
▁Allen	-10.418
▁prey	-10.4184
▁downtown	-10.4185
▁citizens	-10.4192
▁Girl	-10.4203
of	-10.4204
▁Temple	-10.4204
ular	-10.4208
▁deliver	-10.4211
▁Morris	-10.4212
▁110	-10.4214
▁completion	-10.4217
board	-10.4218
▁laws	-10.4221
▁funds	-10.4222
▁feeling	-10.4225
▁fictional	-10.4229
▁61	-10.4231
▁72	-10.4238
▁doctor	-10.424
▁province	-10.4242
▁Pu	-10.4246
pen	-10.4253
▁merchant	-10.4257
▁predict	-10.4258
rat	-10.426
▁spoke	-10.4264
▁images	-10.4264
▁benefit	-10.4265
▁thirty	-10.4265
▁collapse	-10.4275
▁possession	-10.4276
▁Korea	-10.4278
▁answer	-10.428
▁interior	-10.4282
▁card	-10.4284
ew	-10.4294
▁Anne	-10.4295
▁sole	-10.43
▁Plan	-10.4301
ros	-10.431
▁sort	-10.4311
▁destruction	-10.4312
▁begun	-10.4317
itt	-10.4318
▁Ash	-10.4318
ju	-10.432
▁talent	-10.4323
nch	-10.4326
▁concerned	-10.4326
▁cruiser	-10.4331
▁sport	-10.4334
▁assistance	-10.4335
▁mix	-10.4356
▁Robinson	-10.4357
▁schedule	-10.4369
▁li	-10.437
▁hearing	-10.4371
▁Lisa	-10.4372
▁Within	-10.4373
▁designs	-10.4377
▁adventure	-10.4378
▁venue	-10.4383
ock	-10.4386
▁withdraw	-10.4396
▁tied	-10.4396
isation	-10.4396
▁Ph	-10.4399
ugh	-10.4401
▁shipp	-10.4405
ston	-10.4413
▁Camp	-10.4416
▁founder	-10.4417
▁electronic	-10.4417
▁properties	-10.4419
▁wickets	-10.4426
▁impress	-10.443
▁creator	-10.4431
▁lock	-10.4431
▁vehicle	-10.4437
stein	-10.444
▁alleged	-10.4441
▁1952	-10.4442
▁massive	-10.4443
act	-10.4446
▁outer	-10.4449
▁jump	-10.4456
▁Francis	-10.4462
▁spin	-10.4465
ox	-10.4465
▁Alex	-10.4469
▁Anna	-10.4472
▁gather	-10.4472
▁Tra	-10.4472
▁speaking	-10.4481
▁places	-10.4481
▁ready	-10.4482
▁garrison	-10.4483
▁59	-10.4488
▁incorporated	-10.4498
▁mark	-10.4499
▁Sand	-10.45
▁ride	-10.4501
▁grand	-10.4502
▁finishing	-10.4503
▁cavalry	-10.4505
▁Cast	-10.4511
▁Gen	-10.4513
▁99	-10.4515
▁Unlike	-10.452
▁dissipat	-10.4522
▁passengers	-10.4525
▁differ	-10.4526
▁shore	-10.4531
ori	-10.4532
▁Winter	-10.4532
▁roll	-10.4535
▁Television	-10.4536
▁narrative	-10.4537
q	-10.4538
▁1933	-10.4538
▁Construction	-10.4539
▁touchdown	-10.4545
▁Similar	-10.4547
▁snow	-10.455
▁romantic	-10.455
▁dates	-10.4552
▁Bad	-10.4558
▁Around	-10.4559
▁Hay	-10.4559
▁loan	-10.4562
▁recovered	-10.4562
▁charg	-10.4565
▁honour	-10.4565
▁Gate	-10.4567
▁circle	-10.4571
▁compete	-10.4572
▁lake	-10.4576
▁Education	-10.4578
▁Ball	-10.4582
▁photo	-10.4582
▁strip	-10.4582
▁classified	-10.4586
▁Nelson	-10.4587
▁govern	-10.459
▁Mont	-10.459
▁experienc	-10.4598
▁weapon	-10.4608
▁females	-10.4617
▁distribut	-10.4619
▁trad	-10.4619
▁effectively	-10.4619
▁survive	-10.4625
▁ranking	-10.4629
▁Za	-10.463
▁Patrick	-10.4632
ug	-10.4633
▁door	-10.4634
▁sand	-10.4634
▁Open	-10.4638
▁expos	-10.4645
▁1935	-10.4656
▁Real	-10.4658
▁Jane	-10.466
▁Hi	-10.4663
▁Sweden	-10.4663
ight	-10.4665
▁Fo	-10.4666
▁sc	-10.4668
▁eleven	-10.4669
▁Tower	-10.4673
▁regularly	-10.4673
▁transform	-10.468
gate	-10.4681
▁Welsh	-10.4683
ified	-10.4684
▁solution	-10.4686
van	-10.4691
▁1949	-10.4693
▁basketball	-10.4694
▁statue	-10.4694
▁isolat	-10.4698
rin	-10.4699
▁Yu	-10.4701
▁Mal	-10.4702
▁1951	-10.4704
▁vi	-10.4709
nan	-10.471
▁Toronto	-10.4711
▁dominat	-10.4718
▁96	-10.4721
▁Phil	-10.4725
▁bound	-10.473
▁patient	-10.4739
▁stood	-10.4739
mit	-10.474
▁outbreak	-10.4744
▁Son	-10.4768
▁protagonist	-10.4771
▁animation	-10.4774
▁Matthew	-10.4777
▁63	-10.478
▁demo	-10.4783
▁memory	-10.4783
▁soft	-10.4797
▁charges	-10.4798
▁sale	-10.4807
▁Tre	-10.481
▁reality	-10.4813
gar	-10.4818
▁feed	-10.4819
▁die	-10.4819
▁load	-10.4823
▁aboard	-10.4824
what	-10.4824
▁Netherlands	-10.483
▁adaptation	-10.4832
▁bands	-10.4833
rus	-10.4838
▁Nu	-10.4839
▁obtain	-10.484
uri	-10.484
wick	-10.4841
▁routes	-10.4844
▁vision	-10.4845
▁Hospital	-10.4849
▁Run	-10.4853
▁plane	-10.4855
▁Sports	-10.4858
▁communities	-10.4861
▁Nations	-10.4865
▁Ford	-10.4869
▁controversial	-10.4869
mat	-10.4876
temporary	-10.488
▁fil	-10.4887
ode	-10.489
yan	-10.4891
▁phone	-10.4893
▁separated	-10.4893
▁submarine	-10.4898
▁classical	-10.4899
▁restored	-10.49
▁shar	-10.4901
▁organisation	-10.4905
▁anniversary	-10.4916
oon	-10.4923
▁injuries	-10.4927
▁differences	-10.493
▁shock	-10.4931
▁sharp	-10.4937
▁appointment	-10.4938
▁architecture	-10.494
▁pure	-10.494
▁See	-10.494
▁ray	-10.4944
▁doubt	-10.4945
▁1900	-10.4946
formula	-10.4948
▁Cat	-10.4948
▁Ron	-10.4951
ition	-10.4957
▁Here	-10.4959
▁assembl	-10.4962
▁Croatian	-10.4966
▁Jews	-10.497
▁soil	-10.4971
neath	-10.498
▁passenger	-10.4985
▁throne	-10.4986
▁twin	-10.4988
▁teaching	-10.4991
▁Russell	-10.4995
▁Centre	-10.4995
▁Wright	-10.4996
▁penalty	-10.4996
▁absence	-10.4997
az	-10.5
▁Cu	-10.5
▁involvement	-10.5009
▁methods	-10.501
▁consistent	-10.5018
tes	-10.502
▁cloth	-10.5023
▁earth	-10.5031
▁fighter	-10.5031
▁Cro	-10.5034
▁missions	-10.5035
▁comparison	-10.5036
▁giant	-10.5039
▁67	-10.504
▁monitor	-10.5042
▁batting	-10.5042
▁tries	-10.5045
power	-10.5045
▁apart	-10.5052
▁crosses	-10.5054
▁cancer	-10.5054
▁inner	-10.5058
▁78	-10.5059
▁angle	-10.5063
▁discovery	-10.5063
▁worst	-10.5068
▁documentary	-10.5068
tis	-10.5073
lam	-10.5074
▁reviewer	-10.5076
▁Cooper	-10.5077
▁Class	-10.5083
cus	-10.5084
▁77	-10.5087
▁Late	-10.509
ef	-10.5091
▁Bal	-10.5091
▁Now	-10.5092
▁Jon	-10.5096
▁grounds	-10.5097
▁68	-10.5099
▁delayed	-10.5101
▁87	-10.5102
▁Thompson	-10.5104
▁DE	-10.5114
70	-10.5117
▁Race	-10.5121
▁athlete	-10.5124
gh	-10.5125
▁criticis	-10.5129
▁Knight	-10.5131
▁weekend	-10.5136
▁colonial	-10.5136
rm	-10.5139
▁chairman	-10.5139
▁intense	-10.5142
sey	-10.5146
cle	-10.5153
▁interpret	-10.5154
▁Federal	-10.5155
▁Puerto	-10.5157
▁category	-10.5163
▁NFL	-10.5164
▁bow	-10.5164
▁Ste	-10.517
▁fin	-10.517
▁Carter	-10.5171
▁folk	-10.5179
▁Persian	-10.5181
▁library	-10.5181
▁Last	-10.5183
▁chamber	-10.5187
▁PA	-10.519
▁Modern	-10.519
lus	-10.5198
▁94	-10.5201
▁residence	-10.5206
▁medieval	-10.5211
▁Commander	-10.5211
▁eliminat	-10.5214
▁requirement	-10.5215
▁genetic	-10.5224
▁presidential	-10.5224
era	-10.5227
▁Hell	-10.5228
pel	-10.5229
mate	-10.5231
▁der	-10.5235
▁Kelly	-10.5236
▁Constitution	-10.5237
▁Yo	-10.5243
▁motor	-10.5247
gin	-10.5247
▁resources	-10.5259
ich	-10.5263
tar	-10.5265
▁Em	-10.5267
▁politician	-10.5268
▁fitted	-10.5268
▁retirement	-10.5275
▁ninth	-10.528
adi	-10.5282
▁Along	-10.5282
▁Network	-10.5286
tus	-10.5294
▁Wind	-10.5299
▁Th	-10.5299
▁canal	-10.5304
▁siege	-10.531
▁musicians	-10.5314
▁74	-10.5314
▁arrangement	-10.5314
ough	-10.5314
▁Dam	-10.532
dding	-10.5325
▁sit	-10.5326
▁gate	-10.5328
▁Hol	-10.5329
▁Simpson	-10.533
▁Char	-10.5331
▁Police	-10.5332
▁Bl	-10.534
▁Berlin	-10.5344
▁1913	-10.5348
bury	-10.5349
▁revenue	-10.535
▁Rob	-10.5361
▁Holy	-10.5362
▁else	-10.5362
▁convection	-10.5362
ora	-10.5365
▁environmental	-10.5365
▁estimate	-10.5367
▁mere	-10.5368
kh	-10.5377
▁Parker	-10.5378
▁Bel	-10.5382
bra	-10.5384
▁Batman	-10.5386
▁beach	-10.5388
▁dating	-10.539
▁82	-10.5393
▁ratings	-10.5396
▁carrier	-10.5397
▁visible	-10.5405
▁1927	-10.5406
▁Thus	-10.5407
▁Silver	-10.5408
▁emergenc	-10.5411
▁stable	-10.5412
▁negotiation	-10.5418
▁1926	-10.5418
▁Palace	-10.543
▁Murray	-10.5435
ification	-10.5445
▁spell	-10.5449
▁Library	-10.545
▁facility	-10.545
▁69	-10.5455
▁colony	-10.5456
▁falling	-10.5471
▁modified	-10.5472
▁1934	-10.5473
▁1921	-10.5473
▁knock	-10.5475
▁everyone	-10.5475
▁Cre	-10.5476
▁DNA	-10.5477
▁Mer	-10.5478
worth	-10.5478
▁legislation	-10.5481
tenance	-10.5484
pper	-10.5487
▁fl	-10.5489
▁desert	-10.549
▁mental	-10.5491
▁Ab	-10.5496
▁engagement	-10.5497
▁ways	-10.5502
▁Commonwealth	-10.5503
▁Rick	-10.5508
▁rang	-10.5508
▁shark	-10.5508
▁remove	-10.5513
▁stands	-10.5514
▁par	-10.5518
▁shots	-10.5518
ring	-10.5521
▁listing	-10.5523
▁Cur	-10.5523
▁dialogue	-10.5527
▁Houston	-10.5527
▁Corporation	-10.5533
▁gone	-10.5536
▁costs	-10.5538
▁Vice	-10.5539
▁audio	-10.5539
▁vice	-10.554
▁craft	-10.5544
▁Ly	-10.5551
▁Asian	-10.5555
cu	-10.5558
ture	-10.556
▁techniques	-10.556
▁mill	-10.5565
▁sponsor	-10.5567
▁gay	-10.557
▁Let	-10.5573
▁designation	-10.5575
▁Sin	-10.5577
▁erect	-10.5577
▁Warner	-10.5579
▁fi	-10.5581
▁anyone	-10.5582
▁1912	-10.5585
hroughout	-10.5585
▁suffering	-10.5592
▁ideal	-10.5596
▁Story	-10.5599
▁sudden	-10.5602
▁monarch	-10.5605
▁Pass	-10.5606
▁USA	-10.5607
▁railroad	-10.5611
iff	-10.5618
▁frequent	-10.5619
▁seal	-10.5625
▁Heart	-10.5627
▁characteristics	-10.5632
▁Samuel	-10.5633
cat	-10.5636
▁huge	-10.5636
▁Swedish	-10.5639
▁divisions	-10.564
Y	-10.5643
▁emperor	-10.5652
idden	-10.5654
▁eggs	-10.5658
▁sector	-10.566
▁1932	-10.5662
down	-10.5663
▁emphasis	-10.5664
▁thin	-10.5666
▁girls	-10.5667
▁lies	-10.5669
▁superior	-10.5669
▁colleague	-10.5671
▁check	-10.5674
▁Dis	-10.5674
mus	-10.5677
and	-10.5677
▁map	-10.5678
▁intersect	-10.5679
▁Mars	-10.5685
zo	-10.5686
▁belong	-10.5692
▁Sel	-10.5693
▁historic	-10.5699
dra	-10.57
▁enlist	-10.5702
▁materials	-10.571
pu	-10.571
▁require	-10.5712
▁preced	-10.5713
▁universe	-10.5715
▁Pope	-10.5715
▁Gaga	-10.5717
▁bus	-10.572
▁Guy	-10.572
nal	-10.5721
▁Anthon	-10.5721
▁Medal	-10.5722
▁closer	-10.5723
▁populations	-10.5724
kar	-10.5724
▁Dragon	-10.5728
▁console	-10.573
cation	-10.5736
▁seeing	-10.5737
▁Gun	-10.5738
▁98	-10.5741
▁hear	-10.5742
▁implement	-10.5743
▁Israel	-10.5747
▁88	-10.5755
▁graphics	-10.5756
▁difference	-10.5758
▁architect	-10.5761
▁Je	-10.5765
▁Hard	-10.5769
▁Mon	-10.577
▁Hart	-10.5771
▁beautiful	-10.5775
▁understand	-10.5775
▁sleep	-10.5776
▁Through	-10.578
air	-10.578
▁votes	-10.578
▁Jason	-10.5781
▁NBC	-10.5782
▁explosion	-10.5787
▁bear	-10.5791
hal	-10.5797
▁Democrat	-10.5798
▁chapter	-10.5799
▁influential	-10.58
▁Call	-10.581
▁Den	-10.5811
▁streets	-10.5812
25	-10.5812
▁manage	-10.5818
▁73	-10.5821
ram	-10.5821
▁considerabl	-10.5828
▁attempting	-10.5829
▁occupation	-10.5832
▁movements	-10.5832
▁RAF	-10.5835
▁professor	-10.5836
▁Gilbert	-10.5838
▁Detroit	-10.5841
▁Writing	-10.5841
▁costume	-10.5845
▁Croatia	-10.5845
tch	-10.5846
bal	-10.5847
▁pain	-10.5854
▁witness	-10.5855
▁accounts	-10.5856
▁wrong	-10.5857
▁involve	-10.5858
▁adults	-10.5858
▁900	-10.5859
▁affect	-10.5862
▁qualify	-10.5864
▁Frederick	-10.5871
▁squad	-10.5876
ó	-10.5878
▁guilt	-10.588
▁79	-10.5884
▁1929	-10.5885
▁wooden	-10.5891
▁Clinton	-10.5893
▁device	-10.5898
▁developer	-10.5907
▁Staff	-10.5908
▁1911	-10.5911
▁Khan	-10.5912
▁81	-10.5924
▁Mill	-10.5927
▁childhood	-10.5932
body	-10.5937
▁demonstrat	-10.5946
pin	-10.5947
▁chair	-10.5948
▁ethnic	-10.5954
ito	-10.5954
▁trust	-10.596
▁firing	-10.596
ei	-10.5961
▁Las	-10.5963
▁91	-10.5966
▁nest	-10.5967
▁Journal	-10.5968
▁Egyptian	-10.5969
▁struggl	-10.597
top	-10.5971
▁Ol	-10.5972
▁executed	-10.5977
▁meets	-10.5978
▁Sar	-10.5978
▁curve	-10.5978
▁loop	-10.598
▁concentration	-10.5983
▁gap	-10.5983
▁rush	-10.5983
▁Spears	-10.5989
▁Princess	-10.5993
▁1931	-10.5995
▁ocean	-10.5996
▁1922	-10.6
the	-10.6001
▁Building	-10.6005
▁Melbourne	-10.6009
ith	-10.6009
ose	-10.6011
▁tension	-10.6013
▁Lane	-10.6013
▁diameter	-10.6015
80	-10.6016
▁parish	-10.6016
▁Guard	-10.6019
▁sounds	-10.602
▁97	-10.6022
▁afternoon	-10.6022
▁Jacob	-10.6023
▁Jesus	-10.6025
▁Mc	-10.6025
SA	-10.6029
▁coat	-10.6033
▁Stewart	-10.6038
▁tribute	-10.6038
▁Nielsen	-10.6041
▁bright	-10.6052
50	-10.6053
▁Evans	-10.6058
▁71	-10.6061
▁measures	-10.6062
▁Nor	-10.6063
▁uniform	-10.6065
▁graduat	-10.6073
▁Anglo	-10.6074
▁trained	-10.6078
▁hunting	-10.6081
▁Human	-10.6083
▁trouble	-10.6085
hold	-10.6087
cker	-10.6088
▁promise	-10.6089
▁Colorado	-10.609
oid	-10.6091
▁provision	-10.6094
▁Xbox	-10.6094
▁belief	-10.6099
▁Raw	-10.6105
▁Lennon	-10.611
▁carbon	-10.6114
▁fair	-10.6117
▁victims	-10.6122
▁Category	-10.6126
lis	-10.6134
▁lo	-10.6135
▁neck	-10.6135
▁el	-10.6136
▁radar	-10.6139
▁vessel	-10.6146
▁recover	-10.6147
▁resigned	-10.6148
▁footage	-10.615
▁verse	-10.6151
▁instruments	-10.6158
▁experiment	-10.6161
▁flew	-10.6163
▁sentence	-10.6163
▁lawyer	-10.6164
▁facing	-10.6165
▁Ser	-10.617
▁tie	-10.6175
▁Dave	-10.6176
▁deposit	-10.6176
tur	-10.618
▁spend	-10.6183
▁Ge	-10.6184
▁poetry	-10.6185
sel	-10.6188
▁Turkish	-10.6189
vel	-10.6192
▁preferred	-10.6193
▁Austria	-10.6196
▁remix	-10.6196
▁ruin	-10.6206
▁Area	-10.6208
90	-10.6209
▁Er	-10.6209
▁Sub	-10.621
▁Br	-10.6211
▁extent	-10.6212
▁Sarah	-10.6212
nic	-10.6212
▁Foundation	-10.6213
▁Ak	-10.6214
▁collaboration	-10.6218
▁Brazil	-10.6222
art	-10.6225
▁violent	-10.6228
▁circuit	-10.6232
▁watching	-10.6234
din	-10.6236
▁trans	-10.6238
▁resolution	-10.6248
ona	-10.6249
pan	-10.6251
dar	-10.6253
▁notabl	-10.6254
▁140	-10.6254
▁junior	-10.6255
▁Greece	-10.6255
▁pe	-10.6256
mor	-10.626
▁militia	-10.6262
phy	-10.6263
▁window	-10.6264
▁accompany	-10.6265
▁confront	-10.6269
▁Austrian	-10.6271
▁copy	-10.6272
▁debt	-10.6275
▁Edge	-10.6276
▁Tur	-10.6278
▁exhibition	-10.6281
▁Baltimore	-10.6282
▁fields	-10.6282
▁wheel	-10.6284
▁technique	-10.6286
hill	-10.6286
▁Hy	-10.6287
▁drums	-10.6288
▁stress	-10.6288
▁suspend	-10.6292
▁Bird	-10.6293
▁shear	-10.6297
craft	-10.6298
▁hull	-10.63
▁thereafter	-10.6304
▁edit	-10.6304
▁Ac	-10.6307
oli	-10.6309
▁preserv	-10.631
▁skills	-10.6313
▁holds	-10.6314
▁Kat	-10.6315
▁teeth	-10.6318
▁93	-10.6324
▁mo	-10.6332
▁safe	-10.6333
fish	-10.6335
▁earning	-10.6338
▁Lin	-10.6339
▁Garden	-10.6344
▁owners	-10.6347
▁Guardian	-10.6352
▁Mario	-10.6355
▁labor	-10.6355
par	-10.6356
▁Fall	-10.6356
▁offering	-10.6358
▁disaster	-10.6362
▁span	-10.6363
tha	-10.6368
▁wings	-10.637
die	-10.6374
burg	-10.6378
▁tone	-10.638
▁em	-10.6383
▁del	-10.6385
▁Iowa	-10.6386
bel	-10.6387
▁charter	-10.6388
ois	-10.6391
▁Dance	-10.6392
▁Marshall	-10.6399
▁pan	-10.6399
▁easy	-10.6399
▁Harris	-10.6399
▁Somerset	-10.6402
▁Wrestling	-10.6402
▁smooth	-10.6402
▁continuous	-10.6408
ison	-10.6411
ida	-10.6414
▁Miss	-10.642
▁Kan	-10.6424
▁Baby	-10.6425
ae	-10.6435
▁stem	-10.6437
ret	-10.6437
▁authors	-10.6438
▁territories	-10.644
▁taught	-10.644
▁Bow	-10.6442
31	-10.6443
▁lit	-10.6445
▁margin	-10.6446
▁instrumental	-10.645
▁opponents	-10.6453
▁publisher	-10.6453
▁factors	-10.646
▁column	-10.6461
▁stream	-10.6466
▁alternate	-10.6467
▁1928	-10.6469
▁junction	-10.647
▁happy	-10.647
▁89	-10.6474
▁import	-10.6475
▁sons	-10.6475
▁Canal	-10.6479
aki	-10.6479
ue	-10.6483
▁identify	-10.6484
▁learning	-10.6489
▁ban	-10.649
▁grave	-10.6491
▁standards	-10.6493
▁representative	-10.6496
▁withdrew	-10.6498
▁journal	-10.6498
▁alliance	-10.6501
▁upgrad	-10.6513
▁86	-10.6515
▁interests	-10.6515
▁sure	-10.6518
dom	-10.6519
▁Every	-10.6521
gency	-10.6521
▁creative	-10.6523
▁trace	-10.6524
eb	-10.6525
▁prize	-10.6529
▁ballad	-10.6529
▁Miami	-10.6532
18	-10.6534
▁creature	-10.6535
str	-10.6536
vert	-10.6538
▁prove	-10.654
▁Albums	-10.6542
▁alignment	-10.6542
▁salt	-10.6543
▁gr	-10.6545
▁1925	-10.6548
▁encourag	-10.6551
▁Confederate	-10.6555
▁Peninsula	-10.6555
oke	-10.6556
▁northward	-10.6557
▁84	-10.6557
▁Soon	-10.657
▁Wing	-10.657
▁Senator	-10.657
▁Fer	-10.6571
▁teammate	-10.6571
▁1890	-10.6572
▁dangerous	-10.6588
▁recognis	-10.659
▁Hal	-10.6594
▁wedding	-10.6595
▁satellite	-10.6597
▁Ros	-10.66
▁priest	-10.66
▁permission	-10.6601
▁interpretation	-10.6604
▁plain	-10.6604
▁cannon	-10.6611
▁medium	-10.6611
▁McC	-10.6612
▁simultaneous	-10.6614
▁moves	-10.6623
▁crisis	-10.6624
ati	-10.6625
residential	-10.6625
▁Wolf	-10.6625
▁legs	-10.6627
▁Ministr	-10.6628
▁starts	-10.663
▁wrestl	-10.6632
▁choose	-10.6641
▁Seattle	-10.6649
▁construct	-10.6649
▁dam	-10.665
▁guide	-10.6651
▁1924	-10.6654
▁shelter	-10.6655
▁conservative	-10.6659
▁tourist	-10.666
matic	-10.6667
tel	-10.6669
▁boiler	-10.6672
cal	-10.6672
▁whereas	-10.6673
▁expression	-10.6674
▁appropriate	-10.6676
▁Mas	-10.6689
▁Trek	-10.6689
▁veteran	-10.6693
▁elections	-10.6694
▁Fri	-10.6695
▁Treaty	-10.6703
▁Front	-10.6707
uch	-10.6708
▁advice	-10.6711
eng	-10.6711
▁crown	-10.6712
▁Ag	-10.6714
zy	-10.6715
ón	-10.6717
▁Alabama	-10.6718
▁testing	-10.6718
▁pace	-10.6721
▁Mus	-10.6722
▁apartment	-10.6723
40	-10.6725
▁Giants	-10.6728
▁PC	-10.673
▁Kid	-10.6737
▁cruisers	-10.6739
▁platinum	-10.6746
▁Ian	-10.6749
citing	-10.6749
ato	-10.6751
▁bypass	-10.6756
▁mainstream	-10.6762
▁policies	-10.6763
▁engineering	-10.6764
▁submitt	-10.6766
▁difficulties	-10.6767
▁Charlie	-10.6767
ral	-10.6771
▁rarely	-10.6774
▁celebrat	-10.6777
bre	-10.6778
▁Caribbean	-10.6781
▁Native	-10.6782
▁diet	-10.6784
▁How	-10.6785
▁prime	-10.6785
▁admir	-10.6785
shore	-10.6786
ux	-10.6789
nie	-10.6791
▁personality	-10.6792
▁illegal	-10.6798
▁Wil	-10.6804
▁mate	-10.6806
▁spending	-10.6806
tom	-10.6809
▁fur	-10.6812
▁landscape	-10.6813
ille	-10.6815
▁Lang	-10.6818
▁Lawrence	-10.6823
dor	-10.6829
▁1923	-10.6831
kan	-10.6833
▁pounds	-10.6833
▁Minnesota	-10.6833
▁suicide	-10.6837
▁forcing	-10.6839
▁notice	-10.684
▁graduate	-10.684
▁sing	-10.684
▁arch	-10.6841
▁tunnel	-10.6844
▁existed	-10.6847
▁Sur	-10.6847
Q	-10.6847
▁tape	-10.6848
▁specimens	-10.6849
▁balance	-10.685
▁minimal	-10.6851
mas	-10.6852
▁elder	-10.6855
ave	-10.6857
▁evolution	-10.6857
▁characteriz	-10.6857
▁reviewers	-10.6859
▁scholars	-10.6863
▁Hor	-10.6863
br	-10.6872
▁Apple	-10.6875
ort	-10.6878
▁Crown	-10.6883
▁Township	-10.6888
▁truth	-10.6889
idae	-10.6891
▁cat	-10.6892
▁tale	-10.6896
▁Dead	-10.6897
▁attitude	-10.6897
▁approval	-10.69
▁dynasty	-10.6904
▁USS	-10.6904
▁compilation	-10.6906
▁92	-10.6907
▁vertical	-10.6911
cho	-10.6911
xi	-10.6912
▁Hero	-10.6921
▁faith	-10.6921
burn	-10.6921
▁minimum	-10.6922
▁wound	-10.6925
▁Cho	-10.6927
▁arc	-10.693
▁Penn	-10.6931
▁false	-10.6932
▁justice	-10.6933
▁perspective	-10.6936
▁clubs	-10.6942
▁Hotel	-10.6943
▁hockey	-10.6943
▁spiritual	-10.6943
▁Blood	-10.6954
▁Bull	-10.6956
▁Min	-10.6958
▁needs	-10.696
ene	-10.696
ologist	-10.6964
▁Grammy	-10.6965
dal	-10.6971
▁Hungary	-10.6972
▁tenth	-10.6973
▁neighborhood	-10.6975
▁Health	-10.6979
▁housing	-10.6982
▁triple	-10.6993
▁comments	-10.6998
▁Ali	-10.7001
▁Country	-10.7002
tte	-10.7002
▁toll	-10.7005
▁descend	-10.7006
▁churches	-10.7007
▁blow	-10.7011
▁palace	-10.7015
▁pursue	-10.7016
▁Christopher	-10.7017
▁Return	-10.7018
▁Flight	-10.702
▁Much	-10.7025
▁adjacent	-10.7025
oma	-10.703
15	-10.7032
▁pursu	-10.7034
▁l	-10.7035
▁Gro	-10.7036
▁Belgium	-10.7036
▁prepare	-10.7042
▁Bros	-10.7044
▁finance	-10.7045
bridge	-10.7046
▁agents	-10.7049
▁respond	-10.705
▁teacher	-10.7052
▁perceiv	-10.7058
▁funeral	-10.7061
60	-10.7062
▁finale	-10.7068
▁ski	-10.707
▁Interstate	-10.7076
oo	-10.7077
▁Stand	-10.7079
▁para	-10.7079
▁Diego	-10.708
▁Ger	-10.7081
osaurus	-10.7088
▁Bor	-10.7091
▁partnership	-10.7091
▁pole	-10.7093
▁Guide	-10.7094
▁Indians	-10.7095
▁shoulder	-10.7096
▁grown	-10.7101
▁Walker	-10.7106
▁complain	-10.7113
▁bat	-10.7116
▁changing	-10.7123
oll	-10.7125
▁warn	-10.7125
▁aware	-10.7132
▁handed	-10.7134
▁destroyers	-10.7135
▁hat	-10.7139
▁option	-10.7139
▁pitched	-10.714
▁elevation	-10.7141
▁friendly	-10.7146
▁resum	-10.7149
▁trend	-10.7152
▁Children	-10.7152
can	-10.7152
▁disappear	-10.7154
▁victories	-10.7156
▁CR	-10.7156
▁Seven	-10.7157
▁mine	-10.7158
▁attendance	-10.716
sburg	-10.7166
▁definition	-10.7167
▁tip	-10.7169
▁argument	-10.7169
▁windows	-10.7169
wan	-10.717
rum	-10.717
fo	-10.7171
▁1908	-10.7171
▁elsewhere	-10.7178
ole	-10.7178
▁1905	-10.7182
▁beam	-10.7182
▁Blu	-10.7182
▁parent	-10.7184
▁commenc	-10.7184
▁Halo	-10.7188
▁Benjamin	-10.7188
▁Sen	-10.719
▁Saxon	-10.7192
▁evil	-10.7192
bin	-10.7193
▁bombers	-10.7194
▁1909	-10.7194
▁Cold	-10.7194
▁Legacy	-10.7199
▁stick	-10.7201
▁truck	-10.7201
▁percentage	-10.7208
▁airline	-10.7219
▁intensifi	-10.7221
mont	-10.7223
ress	-10.7224
▁aggressive	-10.7225
▁pool	-10.7226
▁operational	-10.7227
▁bishop	-10.7228
▁opponent	-10.7229
▁Mississippi	-10.7232
▁lieutenant	-10.7232
ore	-10.7233
▁Bus	-10.7243
▁Ye	-10.7246
▁Hockey	-10.7251
▁entertainment	-10.7255
▁brick	-10.7255
▁Alfred	-10.7258
▁Fin	-10.7258
▁Op	-10.7259
▁Roosevelt	-10.7262
▁scholar	-10.7262
elli	-10.7269
▁context	-10.7273
96	-10.7281
▁Manhattan	-10.7291
▁sculpture	-10.7291
▁Hindu	-10.7291
▁Born	-10.7292
▁USD	-10.7292
▁fighters	-10.7296
▁mount	-10.7301
lf	-10.7302
▁advisor	-10.7304
▁races	-10.7308
win	-10.7311
▁Chronicle	-10.7311
bird	-10.7312
▁Hong	-10.7313
▁concrete	-10.7317
▁Gal	-10.7322
▁danger	-10.7323
▁absorb	-10.7324
▁Franklin	-10.7331
▁originat	-10.7337
▁Cy	-10.7338
▁signing	-10.7338
▁marry	-10.7339
▁introduce	-10.734
▁evolv	-10.734
33	-10.7349
▁Ven	-10.7355
▁influences	-10.7356
WC	-10.7366
ids	-10.7367
▁rap	-10.7369
izing	-10.737
▁abuse	-10.7371
▁westward	-10.7376
▁languages	-10.7377
ima	-10.7377
▁Trans	-10.7378
▁scientists	-10.7378
▁audition	-10.7384
▁1907	-10.7387
▁translation	-10.7387
▁Kansas	-10.7387
▁Ice	-10.74
▁grey	-10.7404
▁Digital	-10.741
▁Au	-10.7411
▁organ	-10.7413
▁Margaret	-10.7413
▁08	-10.7414
▁update	-10.7416
▁regain	-10.7417
uit	-10.7425
▁organizations	-10.7431
rac	-10.7432
▁Jam	-10.7437
▁accurate	-10.744
▁impossible	-10.7443
▁bid	-10.7447
▁Portland	-10.7449
▁Industry	-10.7451
▁Mag	-10.7452
▁Kurt	-10.7453
▁Roy	-10.7456
▁string	-10.7456
osa	-10.7458
▁profile	-10.7458
▁survivors	-10.7459
▁scar	-10.7462
▁x	-10.7462
▁sa	-10.7463
▁Glen	-10.7465
▁agricultural	-10.7466
▁abilities	-10.747
▁Pal	-10.747
▁investment	-10.7474
▁telling	-10.7481
▁donat	-10.7484
▁phrase	-10.7488
day	-10.749
▁Mass	-10.749
▁occasion	-10.7499
▁armament	-10.7501
▁understanding	-10.7506
▁Independent	-10.7507
▁bay	-10.7508
▁situat	-10.7514
▁Campbell	-10.7515
rk	-10.752
▁orchestra	-10.7523
▁credits	-10.7525
▁1880	-10.7526
▁boys	-10.753
▁horror	-10.7534
etic	-10.7535
zz	-10.7541
▁Saturday	-10.7541
▁Off	-10.7548
▁Luc	-10.7549
▁export	-10.755
▁rhythm	-10.755
▁09	-10.7552
▁dense	-10.7556
ray	-10.7558
▁Mah	-10.7559
▁restoration	-10.7561
▁oxygen	-10.7564
▁Shin	-10.7565
▁educat	-10.7567
▁Dor	-10.757
▁communist	-10.7571
ates	-10.7575
▁fifteen	-10.7579
▁explore	-10.7579
▁covering	-10.758
▁Villa	-10.7581
▁Sullivan	-10.7583
▁bombing	-10.7583
▁guy	-10.7584
arian	-10.7584
nia	-10.7585
ender	-10.7586
▁occasions	-10.7588
▁legend	-10.7589
▁DC	-10.759
▁ignor	-10.7591
▁courts	-10.7592
▁Ren	-10.7594
▁Spring	-10.7597
▁closing	-10.7599
▁god	-10.7599
▁sees	-10.7607
▁relocat	-10.7609
▁resemble	-10.7611
▁sample	-10.7612
19	-10.7613
▁ammunition	-10.7613
▁virtual	-10.7613
▁Get	-10.7614
lay	-10.7615
▁behalf	-10.7617
86	-10.7619
▁distinctive	-10.762
▁Bon	-10.7622
▁Philippines	-10.7622
zu	-10.7626
▁sank	-10.7631
ela	-10.7631
▁Fred	-10.7632
27	-10.7633
▁dancer	-10.7635
▁Historic	-10.7638
▁skull	-10.764
▁tornado	-10.7644
▁Shakespeare	-10.7645
enberg	-10.7651
▁imperial	-10.7651
▁proceed	-10.7656
itz	-10.7659
Z	-10.7662
▁Mun	-10.7663
▁tests	-10.7664
▁execution	-10.7668
▁Warren	-10.7671
▁Kirk	-10.7677
▁panel	-10.768
bl	-10.7688
▁mono	-10.7691
▁Liberal	-10.7694
▁noble	-10.7695
▁symptoms	-10.7695
▁Fran	-10.7696
aj	-10.7696
nne	-10.7697
▁fled	-10.7698
ual	-10.7715
▁Gr	-10.7718
▁burn	-10.7725
▁complet	-10.7726
11	-10.7726
▁Victor	-10.7727
▁Marie	-10.7733
nell	-10.7734
▁illness	-10.7735
lie	-10.7735
▁scatter	-10.7736
▁Small	-10.7736
▁celebration	-10.7737
▁Hunt	-10.7737
▁Tag	-10.7737
▁cargo	-10.7738
▁Know	-10.7738
▁portrait	-10.7744
▁offices	-10.7744
▁seats	-10.7747
▁sunk	-10.7747
▁paintings	-10.7748
ase	-10.775
▁bull	-10.7751
▁Box	-10.7753
▁relationships	-10.7753
▁dramatic	-10.7755
▁listen	-10.7757
▁Base	-10.7758
gel	-10.7759
▁moon	-10.7759
▁Enterprise	-10.7763
▁faction	-10.7764
rian	-10.7764
book	-10.7767
▁Bla	-10.7768
▁concerts	-10.7774
▁Graham	-10.7776
▁Tennessee	-10.7778
▁Louisiana	-10.7778
gre	-10.7779
▁bonus	-10.778
ika	-10.7781
▁Sol	-10.7781
▁Ur	-10.7789
▁underground	-10.7794
▁Die	-10.7796
▁Honor	-10.7796
fire	-10.78
▁poly	-10.7801
rn	-10.7809
▁associate	-10.7812
▁1870	-10.7813
▁invad	-10.782
▁earthquake	-10.7821
aff	-10.7821
▁regulation	-10.7822
▁Zo	-10.7823
wore	-10.7827
▁Labour	-10.7833
▁360	-10.7834
▁Depression	-10.7837
▁Missouri	-10.7837
▁explain	-10.7841
▁Kin	-10.7842
▁1906	-10.7846
▁investigate	-10.7846
▁queen	-10.7849
▁Are	-10.7854
▁interesting	-10.7857
ple	-10.7858
▁bridges	-10.786
gra	-10.7863
ean	-10.7863
▁Montreal	-10.7864
▁Rat	-10.7866
▁mayor	-10.7867
▁communication	-10.7868
▁tomb	-10.7871
▁pointed	-10.7876
▁1904	-10.7876
PA	-10.7877
▁loose	-10.788
▁Tamil	-10.7882
▁MP	-10.7886
▁Ridge	-10.7888
▁tight	-10.7889
▁Season	-10.7894
▁Cam	-10.7895
▁temporari	-10.7895
▁Eu	-10.7901
▁forecast	-10.7904
▁guitarist	-10.791
▁pi	-10.7916
▁Week	-10.7922
▁plus	-10.7923
ites	-10.7925
▁Ze	-10.7926
och	-10.7938
07	-10.7938
gle	-10.7943
▁Bach	-10.7944
▁artistic	-10.7945
cut	-10.7946
▁Sk	-10.7946
▁drum	-10.7946
▁Harvey	-10.7954
▁83	-10.7959
▁wicket	-10.796
▁candidates	-10.7961
▁jazz	-10.7962
▁seed	-10.7964
▁Mitchell	-10.7966
▁purposes	-10.7971
▁Gray	-10.7972
▁wins	-10.7973
▁newspapers	-10.7973
▁expensive	-10.7974
▁proper	-10.7975
▁cult	-10.7976
▁coup	-10.7979
ua	-10.7979
ky	-10.7981
▁magic	-10.7984
▁fifty	-10.7986
▁radical	-10.7986
rick	-10.7987
▁undergo	-10.7989
▁publicly	-10.7994
tle	-10.7997
▁knee	-10.8
16	-10.8001
ska	-10.8003
▁strengthen	-10.8004
▁180	-10.8004
vis	-10.8007
▁Ward	-10.8008
▁administrative	-10.801
▁artwork	-10.8012
▁drove	-10.8012
▁Near	-10.8018
▁Snow	-10.8025
▁Mur	-10.8026
▁typhoon	-10.8029
▁Report	-10.803
▁VI	-10.803
pro	-10.8033
▁dozen	-10.8036
▁permitt	-10.8037
rang	-10.8037
▁familiar	-10.8037
▁Critics	-10.8037
nce	-10.8038
▁Cuba	-10.8039
▁Business	-10.8042
aire	-10.8044
▁degrees	-10.8049
▁measured	-10.8058
lla	-10.8061
▁Championships	-10.8063
▁helping	-10.8065
▁halt	-10.8066
▁inhabitant	-10.8071
bri	-10.8073
ivity	-10.8075
ique	-10.808
▁rates	-10.808
▁Take	-10.8081
▁rebuilt	-10.8085
plo	-10.8088
▁strategic	-10.8091
▁styles	-10.8092
▁bronze	-10.8093
▁meat	-10.8095
▁Anti	-10.8095
room	-10.8099
▁strict	-10.8101
▁Cook	-10.8103
▁cu	-10.8104
▁revolt	-10.8105
▁Wild	-10.8106
▁Billy	-10.8108
▁Cer	-10.8111
▁bo	-10.8115
▁ho	-10.8116
▁Rain	-10.8121
▁Tam	-10.8124
tern	-10.8124
▁clock	-10.8124
hin	-10.8131
▁disorder	-10.8133
▁forty	-10.8136
▁regime	-10.8137
▁alcohol	-10.8138
▁cancelled	-10.8142
igan	-10.8144
▁runner	-10.8153
▁Wal	-10.8155
▁coverage	-10.8157
▁racing	-10.8158
▁colonie	-10.8158
▁rising	-10.8158
bert	-10.8159
lar	-10.8162
▁values	-10.8162
▁sky	-10.8167
▁Wars	-10.817
▁anchor	-10.8182
ire	-10.8191
▁behaviour	-10.8194
▁rebellion	-10.8194
▁mechanism	-10.8202
ii	-10.8205
▁Tro	-10.8206
▁jet	-10.8208
▁willing	-10.8212
▁songwriter	-10.8216
▁application	-10.8217
▁render	-10.8218
▁Indies	-10.8219
ob	-10.8219
▁Forces	-10.8221
▁practical	-10.8222
▁Mid	-10.8226
▁ownership	-10.8231
▁Bureau	-10.8235
▁Files	-10.8236
play	-10.8237
▁repairs	-10.8241
▁Tokyo	-10.8242
▁Bri	-10.8244
chy	-10.8246
▁Arizona	-10.8246
▁signature	-10.825
▁ruling	-10.825
▁mature	-10.8253
▁EP	-10.8253
▁villain	-10.8254
▁Athletic	-10.8262
▁cousin	-10.8262
▁Dylan	-10.8267
▁Qui	-10.8267
set	-10.8269
▁absolute	-10.8271
▁feelings	-10.8271
▁favorabl	-10.8274
▁sq	-10.8275
ale	-10.8276
▁reward	-10.8278
▁conversion	-10.8279
urg	-10.8284
▁defender	-10.8287
ude	-10.8287
▁escap	-10.8288
cor	-10.8294
▁Such	-10.8297
mel	-10.8302
▁Blues	-10.8307
▁Nine	-10.831
▁Ring	-10.8312
▁basin	-10.8316
▁representation	-10.8321
▁predecessor	-10.8326
▁dock	-10.8326
▁Karl	-10.8326
nar	-10.8326
▁waves	-10.8329
▁collaborat	-10.834
▁enabl	-10.8341
lid	-10.8344
▁ow	-10.8344
▁Delaware	-10.8344
▁Stein	-10.8345
▁flagship	-10.8355
▁chapel	-10.8356
▁reinforcement	-10.8357
▁shut	-10.8358
▁tag	-10.8359
ink	-10.8361
rom	-10.8366
▁remnants	-10.8368
▁tribes	-10.8369
pic	-10.8369
▁Sony	-10.837
▁Express	-10.8372
▁clip	-10.838
▁Fre	-10.8381
▁Officer	-10.8382
▁recordings	-10.8388
▁cave	-10.8397
▁gust	-10.8398
▁thinking	-10.8399
▁Hunter	-10.8399
▁Album	-10.8402
pho	-10.8402
▁Stan	-10.8402
ero	-10.8402
▁Oklahoma	-10.8406
▁companion	-10.8406
▁frigate	-10.8406
old	-10.8407
▁sav	-10.8414
▁tru	-10.8414
del	-10.8415
▁condemn	-10.8418
▁List	-10.842
▁legislature	-10.8422
▁flee	-10.8427
▁Federation	-10.843
▁bell	-10.8431
▁Murphy	-10.8431
▁impos	-10.8435
▁quiet	-10.8435
▁marine	-10.8436
▁Iraq	-10.8439
▁Unit	-10.8439
mouth	-10.844
▁Pin	-10.8442
▁shall	-10.8442
▁fallen	-10.8444
▁reverse	-10.8449
▁obvious	-10.8455
▁Broadway	-10.8456
▁assists	-10.8457
▁kW	-10.8457
▁05	-10.8459
▁embark	-10.8459
▁Hit	-10.8463
mark	-10.8463
▁1901	-10.847
▁functions	-10.847
▁dominant	-10.8471
▁Switzerland	-10.8472
▁universal	-10.8472
▁shells	-10.8472
▁electron	-10.8479
ash	-10.848
▁cancel	-10.8484
aka	-10.8487
hn	-10.8489
▁shield	-10.8489
▁Prize	-10.8494
▁Sim	-10.8495
▁excellent	-10.8497
▁musician	-10.8498
▁Rico	-10.8499
▁Juan	-10.85
▁wider	-10.8502
▁ABC	-10.8502
▁trick	-10.8503
▁Rod	-10.8505
▁VII	-10.851
▁restricted	-10.8511
▁Personal	-10.8511
AC	-10.8511
▁Soul	-10.8511
▁Mint	-10.8515
▁spotted	-10.8518
point	-10.8524
▁exclud	-10.8526
▁manufacture	-10.8528
▁grass	-10.8534
▁spore	-10.8535
▁bann	-10.854
▁faster	-10.854
▁announcement	-10.8548
▁contributions	-10.8548
▁j	-10.8554
▁storage	-10.8556
▁mini	-10.8564
▁playoffs	-10.8566
▁Kill	-10.8567
▁Owen	-10.8573
99	-10.8576
▁06	-10.8578
thel	-10.8581
▁resist	-10.8581
▁impression	-10.8582
rich	-10.8583
▁Gor	-10.8585
▁Dick	-10.8587
17	-10.859
▁quarterback	-10.859
tting	-10.8593
▁Chamber	-10.8593
▁institutions	-10.8601
▁subspecies	-10.8601
▁suggestion	-10.8602
ome	-10.8605
▁Baker	-10.8606
▁Amy	-10.8607
▁marking	-10.8607
▁battles	-10.8608
▁170	-10.8614
▁pet	-10.8615
▁boss	-10.8618
▁1903	-10.8622
▁striking	-10.8622
▁bases	-10.8625
gy	-10.8629
▁Ci	-10.8629
▁neighbor	-10.8631
▁plate	-10.8633
▁Sto	-10.8635
▁vast	-10.864
▁baby	-10.8644
▁07	-10.8644
▁1902	-10.8645
ico	-10.8646
▁et	-10.8651
▁Leon	-10.8651
▁objective	-10.8656
▁refuse	-10.8658
▁Leslie	-10.866
pre	-10.8662
▁useful	-10.8664
▁Chan	-10.8665
▁compliment	-10.8665
master	-10.8666
▁ensu	-10.8668
▁theatrical	-10.8673
▁Clo	-10.8674
▁surgery	-10.8675
▁settler	-10.8677
▁feud	-10.8678
▁Perry	-10.868
▁Movie	-10.868
rate	-10.8682
▁yield	-10.8686
35	-10.8689
▁apply	-10.8692
ST	-10.8693
▁Baseball	-10.8699
▁marks	-10.8702
▁philosophy	-10.8703
▁altitude	-10.8703
▁reconnaissance	-10.8703
▁legac	-10.8703
▁Bernard	-10.8704
▁mountains	-10.8711
▁liberal	-10.8711
▁riders	-10.8712
▁cable	-10.8713
▁Pla	-10.8715
ration	-10.8715
▁Gil	-10.8718
▁touring	-10.8718
▁pr	-10.8721
28	-10.8723
65	-10.8725
▁Well	-10.8725
▁patterns	-10.8725
▁Atlanta	-10.8728
▁Nixon	-10.8728
▁Grove	-10.873
00	-10.8733
zer	-10.8734
app	-10.8735
▁liquid	-10.8737
▁Hills	-10.8739
▁emotion	-10.8742
ali	-10.8743
▁Actor	-10.8744
▁targets	-10.8745
▁pretty	-10.8745
▁explains	-10.8748
▁Denmark	-10.875
▁Type	-10.875
▁Record	-10.8751
▁biographer	-10.8752
▁hunt	-10.8755
▁concentrat	-10.8757
▁theater	-10.8759
▁Mother	-10.876
▁Jonathan	-10.8762
▁tune	-10.8762
▁Trust	-10.8763
▁authoriz	-10.8764
▁fixed	-10.877
eur	-10.877
▁circumstances	-10.8771
▁Hudson	-10.878
▁stole	-10.8781
▁expect	-10.8784
38	-10.8784
▁sequences	-10.8785
▁prince	-10.8785
▁leak	-10.8786
▁dubb	-10.8786
▁arts	-10.8786
▁Campaign	-10.8788
▁ritual	-10.8788
▁Friday	-10.8788
▁Johnny	-10.879
▁shop	-10.8792
▁portrayal	-10.8792
▁realize	-10.8799
hose	-10.8801
▁Rihanna	-10.8801
▁conventional	-10.8809
ically	-10.8813
▁Abbey	-10.8814
▁displac	-10.8816
▁whils	-10.8823
▁105	-10.8826
mmer	-10.8827
45	-10.8832
▁reporter	-10.8833
▁Liz	-10.8837
▁indicat	-10.8837
▁Fighter	-10.8841
▁incorporate	-10.8843
▁friendship	-10.8843
▁holiday	-10.8844
iya	-10.8844
▁Bru	-10.8845
▁log	-10.8848
▁Potter	-10.8851
▁Var	-10.8852
cin	-10.8862
gor	-10.8865
▁tissue	-10.8865
ila	-10.8873
▁offense	-10.8874
▁Shaw	-10.8877
▁alive	-10.8879
▁banks	-10.888
▁revis	-10.8882
hall	-10.8887
▁examples	-10.8888
chen	-10.8889
form	-10.8891
▁abandon	-10.8891
▁sat	-10.8893
cent	-10.8898
▁proportion	-10.89
▁net	-10.8901
▁horn	-10.8904
▁Arnold	-10.8904
hen	-10.8907
▁Communist	-10.8909
▁micro	-10.8911
▁remarked	-10.8912
▁poems	-10.8914
▁Railroad	-10.8917
▁payment	-10.8919
▁Keith	-10.8931
▁cinema	-10.8934
▁printed	-10.8936
66	-10.8937
▁Bat	-10.8937
sley	-10.8937
▁Mir	-10.8939
▁punk	-10.8941
▁gift	-10.8945
▁farmer	-10.8947
▁Impact	-10.8948
▁delegate	-10.8952
▁Vol	-10.8957
▁hook	-10.8958
▁Obama	-10.8961
▁soldier	-10.8964
▁employ	-10.8967
▁Wayne	-10.8971
▁rounds	-10.8971
went	-10.8975
▁cloud	-10.8977
▁Pearl	-10.8977
▁mainland	-10.8978
▁Natural	-10.8978
▁Jimmy	-10.8983
ott	-10.8986
▁represents	-10.8987
oh	-10.8989
RA	-10.899
▁Classic	-10.899
▁external	-10.8991
▁Cole	-10.8994
▁sword	-10.8996
▁Internet	-10.8996
eck	-10.8998
▁Devil	-10.8998
▁Reserve	-10.9
▁float	-10.9001
▁Hugh	-10.9001
stra	-10.9002
▁subjects	-10.9004
▁Rachel	-10.9005
cia	-10.9007
▁Nan	-10.9009
▁pioneer	-10.9013
▁Defence	-10.9014
▁bra	-10.9017
▁exposure	-10.9019
85	-10.902
▁Israeli	-10.9025
▁compound	-10.9026
▁Inc	-10.9033
▁revolution	-10.9034
▁strain	-10.9036
ava	-10.9037
int	-10.9039
▁Peace	-10.904
▁Tracy	-10.904
▁cutting	-10.9041
▁duo	-10.9044
▁investigat	-10.9047
▁flights	-10.9048
▁nickname	-10.905
▁ob	-10.905
▁strengthened	-10.9052
▁Work	-10.9054
▁Gre	-10.9055
▁Drive	-10.9058
▁empire	-10.9062
▁bio	-10.9063
▁Mau	-10.9063
gger	-10.9063
chin	-10.9064
▁readers	-10.9065
▁taste	-10.9067
▁meter	-10.9068
▁su	-10.9071
69	-10.9075
▁Universal	-10.9075
▁Eventual	-10.9075
▁carriers	-10.9075
▁mines	-10.9078
▁license	-10.908
▁mobile	-10.9083
▁Buck	-10.9084
▁casting	-10.9085
elle	-10.9087
▁merg	-10.9088
▁routine	-10.9088
▁Shu	-10.909
▁demolished	-10.9092
▁Birmingham	-10.9093
▁constitution	-10.9093
onic	-10.9095
▁dancing	-10.9097
TA	-10.9098
hor	-10.9103
▁conversation	-10.911
▁backing	-10.911
▁nominations	-10.9112
fr	-10.9113
▁constitutional	-10.9116
▁McCartney	-10.9119
▁culminat	-10.9119
▁Social	-10.9122
▁expense	-10.9123
bus	-10.9126
▁Belgian	-10.9128
▁goods	-10.9129
▁uncle	-10.913
▁reduction	-10.9132
▁Susan	-10.9133
▁Leonard	-10.9133
▁Champion	-10.9136
▁experimental	-10.9136
▁Boat	-10.9142
ami	-10.9147
▁Yankees	-10.9149
▁artificial	-10.915
▁Pra	-10.9153
▁encourage	-10.9154
▁drink	-10.9161
▁Rad	-10.9162
▁Pri	-10.9162
▁bearing	-10.9163
▁Pam	-10.9167
mun	-10.9169
▁Our	-10.917
atic	-10.917
95	-10.9171
▁Bobby	-10.9172
▁oversea	-10.9174
▁mining	-10.9174
▁carv	-10.9176
▁attraction	-10.9176
21	-10.9177
▁deliberate	-10.9177
qualified	-10.9177
▁Mission	-10.9178
▁Secret	-10.918
rell	-10.9182
▁Phoenix	-10.9186
▁trapp	-10.9188
▁cup	-10.9192
▁Morrison	-10.9194
▁factory	-10.9196
▁odd	-10.9204
▁secretary	-10.9204
anda	-10.9204
▁renew	-10.9206
▁Thi	-10.9209
nis	-10.9209
vid	-10.921
▁delivery	-10.9213
▁sitting	-10.9217
ado	-10.9218
▁pitcher	-10.922
▁pl	-10.9221
▁favourite	-10.9222
▁depiction	-10.9222
▁Lucas	-10.9222
▁Lost	-10.9225
long	-10.923
▁prototype	-10.923
▁heir	-10.923
▁kiss	-10.9232
▁Maya	-10.9233
▁file	-10.9235
▁acoustic	-10.9235
▁finger	-10.9237
▁Connecticut	-10.9239
▁Todd	-10.9241
▁Madagascar	-10.9244
▁deteriorat	-10.9244
pol	-10.9244
29	-10.9246
ben	-10.9246
▁crest	-10.925
▁decorat	-10.9251
14	-10.9254
▁roots	-10.9254
ost	-10.9257
▁drugs	-10.9259
hawk	-10.926
▁serial	-10.9261
cc	-10.9261
una	-10.9262
▁shirt	-10.9262
▁personally	-10.9264
▁infection	-10.9265
sson	-10.9267
▁tube	-10.9273
▁armie	-10.9281
▁placing	-10.9293
▁Napoleon	-10.9293
▁evacuat	-10.9297
▁withdrawal	-10.9299
▁discussion	-10.93
▁Ontario	-10.9302
▁Still	-10.9303
▁aerial	-10.9304
▁electrical	-10.9306
▁inherit	-10.931
▁Canterbury	-10.9311
▁removal	-10.9312
▁laugh	-10.9313
▁calculat	-10.932
▁stores	-10.9322
ull	-10.9322
▁upgrade	-10.9324
▁Community	-10.9325
▁Jupiter	-10.9329
48	-10.9332
ddy	-10.9339
▁Horn	-10.9342
▁raising	-10.9343
▁Fleming	-10.9343
bit	-10.9343
▁app	-10.9347
esh	-10.935
▁Hawk	-10.9352
▁aftermath	-10.9352
▁solar	-10.9353
▁Roll	-10.9355
▁diamond	-10.9357
▁parliament	-10.9362
▁Ultimate	-10.9366
▁Kon	-10.9367
▁mechanical	-10.9373
12	-10.9375
aging	-10.9381
▁Reg	-10.9381
▁Convention	-10.9388
▁Foreign	-10.9388
ify	-10.9392
▁gray	-10.9395
▁prospect	-10.9395
▁Victorian	-10.9397
▁battalions	-10.94
▁Des	-10.9402
▁prohibit	-10.9407
▁TNA	-10.9409
▁specimen	-10.9418
49	-10.9419
▁pump	-10.942
▁Tr	-10.9421
▁Trail	-10.9421
▁Say	-10.9428
▁Barr	-10.9428
▁compil	-10.9431
▁Windows	-10.9434
▁suppli	-10.9439
mu	-10.9439
▁exile	-10.9441
▁substitute	-10.9441
▁ear	-10.9444
▁Greg	-10.9449
▁articles	-10.9449
▁researcher	-10.9452
▁bone	-10.9453
▁acknowledged	-10.9454
▁Rights	-10.9456
▁Ton	-10.9456
▁amateur	-10.9457
▁releases	-10.9458
ime	-10.9459
MA	-10.9462
▁Side	-10.9467
stood	-10.9467
▁Scout	-10.9472
chan	-10.9474
▁Conservative	-10.9475
▁inhabit	-10.9478
▁UEFA	-10.948
▁Legend	-10.948
▁Sw	-10.9481
avi	-10.9482
▁react	-10.9484
▁ratio	-10.9485
utstanding	-10.9485
▁Nar	-10.9487
▁membership	-10.9487
▁125	-10.949
▁Oak	-10.9493
▁decay	-10.9494
▁realized	-10.9495
▁secondar	-10.9495
wer	-10.9501
▁Kra	-10.9503
▁Swift	-10.9507
▁Mrs	-10.9512
▁Vancouver	-10.9512
▁Dog	-10.9515
mic	-10.9516
▁initiated	-10.9516
▁garner	-10.9517
▁Triple	-10.9518
▁jurisdiction	-10.9521
37	-10.9523
▁fame	-10.9525
▁extratropical	-10.9526
pha	-10.9528
▁Fur	-10.9529
0	-10.9533
79	-10.9534
▁cur	-10.9538
▁Rh	-10.9539
▁Dom	-10.9545
▁Fish	-10.9546
▁Administration	-10.9549
▁venture	-10.9549
▁publishing	-10.955
▁cluster	-10.9553
att	-10.9558
36	-10.9562
▁fantasy	-10.9563
▁guid	-10.9563
lt	-10.9569
▁translat	-10.9572
▁youngest	-10.9572
▁conc	-10.9572
▁Eye	-10.9572
aga	-10.9579
quin	-10.9579
▁lover	-10.958
▁Deep	-10.9586
▁Beat	-10.9587
▁ongoing	-10.9593
▁Kn	-10.9595
▁waste	-10.9601
▁wine	-10.9602
▁Artist	-10.9602
▁sang	-10.9603
vy	-10.9603
▁rivers	-10.9604
▁racial	-10.9604
ncy	-10.9605
▁flu	-10.9605
▁Gary	-10.9609
idi	-10.961
▁sum	-10.961
▁tenure	-10.9612
▁Para	-10.9613
▁Marvel	-10.9613
▁demon	-10.9614
ister	-10.9617
▁bond	-10.9618
▁petition	-10.9619
▁Local	-10.9619
▁Alice	-10.9619
▁Works	-10.962
▁trailer	-10.9622
▁Portuguese	-10.9623
▁Hardy	-10.9624
wall	-10.9626
▁Village	-10.9628
▁Bradman	-10.9631
▁1860	-10.9631
▁covers	-10.9638
▁funny	-10.9643
ili	-10.9646
▁characteristic	-10.965
▁fewer	-10.9653
▁eruption	-10.9654
▁elaborate	-10.9662
▁blocks	-10.9662
▁Grey	-10.9665
▁putting	-10.9666
▁bombs	-10.9666
cer	-10.9667
▁battlecruiser	-10.967
▁operator	-10.967
▁planets	-10.9672
▁Dwight	-10.9674
▁Auto	-10.9676
▁exploit	-10.9676
▁exceed	-10.9676
kel	-10.9678
▁architectural	-10.9679
hitting	-10.968
▁NCAA	-10.9684
24	-10.9684
▁quot	-10.9685
▁competitive	-10.9688
▁fault	-10.9689
▁compounds	-10.9689
▁Past	-10.9692
▁Stra	-10.9693
▁Trophy	-10.9693
▁Ana	-10.9694
▁mushroom	-10.9698
▁chase	-10.9699
▁Marge	-10.97
▁accomplish	-10.9701
list	-10.9706
▁Kil	-10.9707
▁gear	-10.9707
ote	-10.9708
▁1893	-10.9709
▁sisters	-10.971
▁intervention	-10.9712
eri	-10.9714
▁preserve	-10.9715
▁watershed	-10.9717
▁disturbance	-10.9717
▁explosive	-10.9721
▁remark	-10.9723
▁improvements	-10.9724
▁steps	-10.9725
▁Oliver	-10.9726
▁hydrogen	-10.9726
▁riot	-10.9727
▁Stock	-10.9728
▁explor	-10.9731
▁trigger	-10.9732
▁wire	-10.9732
tti	-10.9733
▁supplement	-10.9735
▁dispatch	-10.9735
▁Howe	-10.9736
▁Ter	-10.9736
26	-10.9737
▁intellectual	-10.974
▁birthday	-10.9741
▁assess	-10.9744
▁Hampshire	-10.9745
▁provincial	-10.9745
▁density	-10.9746
▁JT	-10.9746
▁lie	-10.9746
▁Count	-10.975
▁Hans	-10.9751
tsu	-10.9752
▁Fan	-10.9754
▁shallow	-10.9755
▁examin	-10.9757
▁1896	-10.9758
len	-10.9759
▁Professor	-10.9759
▁guarantee	-10.9759
▁pages	-10.9762
▁Plant	-10.9766
▁Zi	-10.9769
▁Carr	-10.9769
▁anticipat	-10.9774
▁pin	-10.9775
▁identical	-10.9778
▁promis	-10.9778
▁Collins	-10.9778
rim	-10.9779
▁fr	-10.978
▁Pur	-10.9782
▁Alaska	-10.9783
▁heading	-10.9784
▁educational	-10.9786
▁terrain	-10.9788
▁Mega	-10.9789
▁Qua	-10.9791
▁Edinburgh	-10.9792
cious	-10.9793
▁matters	-10.9794
▁Armenian	-10.9795
▁adapt	-10.9799
▁walking	-10.9799
▁bones	-10.98
▁exhaust	-10.9802
▁immun	-10.9802
▁Beck	-10.9802
fall	-10.9806
▁creek	-10.9807
▁Has	-10.9807
▁Pakistan	-10.981
▁muscle	-10.9816
▁Girls	-10.9816
cast	-10.982
▁examination	-10.9824
▁photograph	-10.9825
▁inland	-10.9826
▁auto	-10.9829
▁Flying	-10.9829
▁insects	-10.9829
tron	-10.983
▁sung	-10.983
▁Turner	-10.9831
▁Dale	-10.9832
▁rifle	-10.9835
▁trough	-10.9835
▁voyage	-10.984
▁sweet	-10.984
▁Had	-10.984
▁1898	-10.9842
▁feeding	-10.9848
▁Cricket	-10.9849
▁parody	-10.9849
▁duration	-10.985
▁pleas	-10.9853
▁Virgin	-10.9853
▁Vin	-10.9856
▁Ty	-10.9857
▁divorce	-10.9857
▁streak	-10.9859
char	-10.986
▁bore	-10.9861
▁McG	-10.9862
▁Where	-10.9862
▁neighbour	-10.9863
▁Province	-10.9863
▁350	-10.9869
▁04	-10.987
▁seized	-10.9871
▁cartoon	-10.9871
▁Craig	-10.9874
▁habit	-10.9875
▁assembly	-10.9878
▁Spe	-10.9878
▁Hand	-10.9885
▁wreck	-10.9886
▁flower	-10.9896
cla	-10.9897
▁tear	-10.9904
▁Trade	-10.991
▁medicine	-10.9911
▁jury	-10.9913
▁Historical	-10.9923
▁anime	-10.9926
▁Champions	-10.9928
ER	-10.9928
▁Argentina	-10.9931
▁Yorkshire	-10.9932
▁promotional	-10.9933
aur	-10.9935
▁tin	-10.9941
▁Pink	-10.9943
▁repeat	-10.9947
▁Performance	-10.995
▁Ralph	-10.995
▁fortress	-10.995
▁advertising	-10.9954
▁exclusive	-10.9955
▁vs	-10.9956
▁ceased	-10.9961
roy	-10.9965
▁mistake	-10.9966
▁employment	-10.9968
▁Lloyd	-10.9969
▁Low	-10.9972
▁blind	-10.9979
▁fossil	-10.9981
▁unclear	-10.9981
▁Wii	-10.9982
13	-10.9985
▁Whit	-10.9987
▁commitment	-10.9989
▁Overall	-10.9992
▁approaching	-10.9994
maker	-10.9996
▁conservation	-10.9999
▁requires	-11.0001
▁tubes	-11.0001
▁automatic	-11.0002
▁magnitude	-11.0003
▁annually	-11.0005
▁swimm	-11.0006
▁drummer	-11.0008
▁output	-11.0009
76	-11.0013
57	-11.0014
▁predominant	-11.0017
▁contribution	-11.0018
▁wake	-11.0025
▁electro	-11.0025
▁Market	-11.0025
▁Globe	-11.0027
ér	-11.0029
▁Ce	-11.003
▁accidental	-11.0031
▁opt	-11.0031
▁Thunder	-11.0032
▁distant	-11.0032
▁Spirit	-11.0032
▁progressive	-11.0032
▁commentary	-11.0033
▁defences	-11.0033
rt	-11.0037
▁Monte	-11.0038
▁Celtic	-11.0041
▁software	-11.0042
▁wage	-11.0045
▁Jerry	-11.0047
▁Mountains	-11.0047
▁ruler	-11.0048
▁1899	-11.005
▁Steven	-11.0051
▁contribute	-11.0052
▁imagery	-11.0053
▁recall	-11.0055
▁Metro	-11.0058
▁replied	-11.0058
zen	-11.0059
▁worship	-11.006
▁Rus	-11.0064
▁ramp	-11.0065
▁proclaim	-11.0066
▁arrangements	-11.0068
▁thirteen	-11.0069
▁succession	-11.007
▁explanation	-11.0071
▁Subsequent	-11.0075
▁demonstrate	-11.0076
kov	-11.0081
▁Bro	-11.0086
▁Eve	-11.0088
88	-11.009
rant	-11.0091
▁liner	-11.0091
▁und	-11.0093
▁mirror	-11.0095
▁lawsuit	-11.0095
▁origins	-11.0097
▁Guitar	-11.01
▁vary	-11.0103
▁reluctant	-11.0104
▁Bennett	-11.011
▁burial	-11.011
▁improvement	-11.0111
aries	-11.0112
▁Queensland	-11.0115
▁Grace	-11.0119
▁drinking	-11.0122
▁gal	-11.0122
▁celebrate	-11.0124
▁Official	-11.0124
hy	-11.0124
▁Johnston	-11.0125
▁Finland	-11.0126
ule	-11.0127
▁jobs	-11.0127
▁biograph	-11.0129
▁monaster	-11.0129
▁restore	-11.0134
▁disrupt	-11.0135
▁structural	-11.0139
▁directors	-11.014
▁Voice	-11.0142
▁harm	-11.0143
▁destroyer	-11.0147
▁sending	-11.0149
89	-11.015
▁Norfolk	-11.0154
▁Electric	-11.0154
▁Boys	-11.0155
▁electricity	-11.0156
59	-11.0157
▁disband	-11.0159
▁Brothers	-11.0161
▁Az	-11.0169
▁Judge	-11.0169
▁dynamic	-11.0174
oe	-11.0176
▁failing	-11.0177
▁Rio	-11.0177
▁Mayor	-11.0177
▁Motor	-11.0178
▁labour	-11.0179
▁recognize	-11.0181
▁mask	-11.0181
▁publications	-11.0183
▁Cra	-11.0183
▁branches	-11.019
iel	-11.0191
▁Burton	-11.0191
▁essay	-11.0193
▁Hawaii	-11.0194
▁smoke	-11.0197
▁activist	-11.0202
▁Child	-11.0203
▁Kate	-11.0205
olo	-11.0208
▁Heritage	-11.0208
▁cabinet	-11.0209
▁fat	-11.021
67	-11.0214
fin	-11.0221
▁Apollo	-11.0228
▁dive	-11.0228
▁eastward	-11.0228
▁Baron	-11.0231
▁Nicholas	-11.0233
▁Donald	-11.0233
▁presentation	-11.0235
▁Barry	-11.0235
▁tea	-11.0236
▁turbine	-11.0238
feld	-11.0241
▁Guinea	-11.0243
▁Harbor	-11.0246
▁instrument	-11.0246
wo	-11.0248
▁Cle	-11.0249
▁radiation	-11.025
▁na	-11.0253
ema	-11.0253
▁collaps	-11.0254
▁eagle	-11.0257
▁Sho	-11.0259
▁attending	-11.0261
▁1850	-11.0263
▁Mos	-11.0265
▁precipitation	-11.0268
▁kn	-11.027
▁Helen	-11.027
▁Brazilian	-11.0272
▁Catherine	-11.0272
▁atomic	-11.0273
▁root	-11.0275
iness	-11.028
▁Rev	-11.028
▁Mason	-11.0281
▁Medical	-11.0283
▁Vincent	-11.0283
▁accommodate	-11.0284
mbi	-11.0285
tru	-11.0287
lum	-11.029
▁loyal	-11.0291
46	-11.0294
▁athletic	-11.0297
▁Pet	-11.0298
▁exclusively	-11.0299
▁Oh	-11.0299
▁Sega	-11.03
▁Syria	-11.0302
▁ve	-11.0305
away	-11.0305
▁Carol	-11.0307
▁gender	-11.0308
▁pursuit	-11.0309
▁Next	-11.0309
▁beaut	-11.031
▁slavery	-11.0312
view	-11.0312
▁inscription	-11.0312
▁Davies	-11.0317
▁Mil	-11.0318
▁Common	-11.0318
▁Kal	-11.0318
▁Sweet	-11.0322
▁Emmy	-11.0322
▁Kane	-11.0326
pop	-11.0333
▁skill	-11.0333
▁stronger	-11.0333
▁web	-11.0334
▁Transportation	-11.0335
▁Yellow	-11.0337
▁photographs	-11.0339
▁Fat	-11.0341
ood	-11.0345
▁kit	-11.0347
▁Darwin	-11.0347
▁tooth	-11.0348
▁varied	-11.036
▁instruct	-11.0361
phone	-11.0364
▁rent	-11.0365
▁Training	-11.0365
▁Diamond	-11.0367
▁175	-11.0368
▁Farm	-11.0371
▁fourteen	-11.0371
nik	-11.0372
▁01	-11.0376
▁hybrid	-11.0377
▁loved	-11.0381
▁Scientology	-11.0387
▁tide	-11.0388
▁Abu	-11.0393
75	-11.0394
▁fatal	-11.0395
▁neutral	-11.0396
fu	-11.0397
▁assume	-11.0401
▁Rangers	-11.0402
▁Harvard	-11.0402
▁virus	-11.0403
▁Hughes	-11.0407
▁dissolv	-11.0407
▁copper	-11.041
▁sheet	-11.0411
▁frequency	-11.0416
▁volunteer	-11.0417
▁Beginning	-11.0417
▁crystal	-11.0423
TS	-11.0424
▁Kh	-11.0424
▁1897	-11.0425
CC	-11.0427
56	-11.0427
aba	-11.0429
▁Prix	-11.0431
▁hole	-11.0432
▁Credits	-11.0433
▁Magic	-11.0433
▁airfield	-11.0436
▁cr	-11.0437
▁volumes	-11.0447
grad	-11.0447
▁discipline	-11.0448
▁conquer	-11.0448
▁lyrical	-11.0448
▁Met	-11.0451
▁leads	-11.0451
▁legislative	-11.0453
▁sugar	-11.0453
▁survival	-11.0455
▁Oslo	-11.0458
▁respective	-11.046
▁Swiss	-11.0463
▁suspect	-11.0465
▁sixteen	-11.0467
▁valuable	-11.0468
▁advised	-11.0469
▁Indonesia	-11.047
▁champions	-11.0471
▁collective	-11.0472
▁conceived	-11.0473
▁Cameron	-11.0473
▁Gallery	-11.0473
▁03	-11.0477
▁Mol	-11.0477
▁evacuation	-11.0478
▁dealing	-11.048
▁anger	-11.048
▁videos	-11.0481
▁Neil	-11.0482
▁Lind	-11.0485
▁limits	-11.0487
▁chord	-11.0488
▁summit	-11.0489
▁Moscow	-11.0493
▁crews	-11.0495
fra	-11.0496
▁dispers	-11.0498
met	-11.0502
▁allocat	-11.0503
▁spark	-11.0504
▁steep	-11.0504
▁Gill	-11.0504
▁initiative	-11.0504
▁sacrifice	-11.0507
lain	-11.0508
▁commentator	-11.0509
▁charity	-11.0509
ain	-11.0513
ngry	-11.0514
ele	-11.0515
tric	-11.0517
▁dogs	-11.0518
▁Upper	-11.0519
▁ne	-11.052
▁voting	-11.0529
▁Indonesian	-11.0532
▁Pittsburgh	-11.0534
▁Protestant	-11.0534
▁victim	-11.0535
▁Luke	-11.0537
▁Ship	-11.0538
atory	-11.0541
▁worn	-11.0544
▁Ruth	-11.0547
▁hide	-11.0548
▁Antonio	-11.055
▁Bath	-11.0551
▁upset	-11.0555
▁reinforc	-11.0556
▁Orange	-11.056
▁Female	-11.0565
▁shaft	-11.0565
aku	-11.0566
▁Edwards	-11.0567
▁representatives	-11.0567
▁Mat	-11.0569
▁servant	-11.0569
▁prepar	-11.0573
▁spoken	-11.0573
▁autumn	-11.0575
▁Cop	-11.0578
▁Tang	-11.0578
▁Junior	-11.058
▁gang	-11.0581
▁scout	-11.0586
▁fee	-11.0589
▁Stevens	-11.0589
▁photography	-11.059
▁confidence	-11.059
▁burned	-11.0593
▁celebrit	-11.0595
▁filter	-11.0599
▁attorney	-11.0601
ré	-11.0601
▁tonnes	-11.0603
▁Studio	-11.0604
▁humor	-11.0606
log	-11.0608
▁puzzle	-11.0611
▁interrupt	-11.0611
▁tactics	-11.0614
▁manga	-11.0615
▁Hope	-11.0616
▁nautical	-11.0616
▁Wallace	-11.0616
▁Style	-11.0617
▁Terry	-11.0618
ute	-11.0621
▁stuff	-11.0621
▁accelerat	-11.0622
▁Books	-11.0626
▁urani	-11.0627
▁Lev	-11.063
▁patron	-11.0631
▁recommendation	-11.0634
▁roadway	-11.0635
took	-11.0635
▁fate	-11.0636
▁explicit	-11.0642
ography	-11.0643
▁melody	-11.0647
▁Edition	-11.0648
▁laborator	-11.0649
▁proceeded	-11.0649
▁ports	-11.0651
▁crack	-11.0653
▁fold	-11.0658
▁flowers	-11.066
▁jaw	-11.066
▁Mann	-11.0661
unk	-11.0661
▁Rap	-11.0662
▁Bang	-11.0666
▁Section	-11.0669
▁careful	-11.0676
▁Program	-11.0676
▁inclusion	-11.0678
▁Bryan	-11.0678
chemistry	-11.0681
▁Bert	-11.0682
uma	-11.0683
▁harbour	-11.0683
chu	-11.0686
▁Microsoft	-11.0688
▁flash	-11.0689
▁institution	-11.0691
▁Transport	-11.0691
▁Comp	-11.0692
▁echo	-11.0692
97	-11.07
▁Formation	-11.0701
▁Description	-11.0704
▁None	-11.0709
▁indeed	-11.0711
▁Defense	-11.0714
81	-11.0715
▁sad	-11.0718
▁uncertain	-11.0719
▁occupy	-11.0719
CA	-11.0721
ground	-11.0721
▁minority	-11.0723
▁Control	-11.0725
▁Jefferson	-11.073
▁Cla	-11.0731
▁Afterma	-11.0734
09	-11.0753
▁lists	-11.0755
▁Richmond	-11.0756
▁programming	-11.0756
▁steal	-11.0757
▁Kir	-11.0762
vor	-11.0764
▁mail	-11.0764
▁Security	-11.0764
bro	-11.0765
cht	-11.077
▁Sheffield	-11.0777
▁pictures	-11.0778
▁advocate	-11.0778
▁assert	-11.0779
▁Larry	-11.0784
▁burning	-11.0784
▁Malaysia	-11.0785
71	-11.0786
ties	-11.0791
▁warfare	-11.0792
run	-11.0793
▁Thing	-11.0794
▁fairly	-11.0795
▁demonstration	-11.0799
▁fundamental	-11.0803
▁consideration	-11.0804
ctor	-11.0805
fl	-11.0811
39	-11.0813
▁Wei	-11.0815
▁1895	-11.0822
▁suitabl	-11.0822
▁Bol	-11.0823
▁Charts	-11.0825
▁riding	-11.0825
▁Dallas	-11.0829
ante	-11.083
▁wash	-11.0831
▁package	-11.0833
▁Salt	-11.0833
▁Zero	-11.0834
▁Austin	-11.084
▁Cri	-11.084
▁Beth	-11.0841
▁devices	-11.0842
47	-11.0843
▁tempo	-11.0846
not	-11.0847
▁Herald	-11.085
▁Wonder	-11.0851
▁users	-11.0854
lau	-11.0855
▁consult	-11.0857
▁rivalry	-11.086
▁Together	-11.0861
▁bombardment	-11.0862
▁115	-11.0867
bul	-11.087
▁inflict	-11.0871
ulation	-11.0872
▁Collection	-11.0872
▁Mile	-11.0876
▁convey	-11.0877
▁Gene	-11.0877
ensis	-11.0877
▁FBI	-11.0878
ello	-11.0878
▁Picture	-11.0879
▁cruise	-11.088
▁Allie	-11.0881
▁administer	-11.0882
▁Cyrus	-11.0882
hand	-11.0884
▁absent	-11.0887
▁warrior	-11.0887
▁storms	-11.0888
▁myth	-11.089
yne	-11.0894
dict	-11.09
▁Mix	-11.09
▁Gang	-11.0902
▁Amendment	-11.0903
▁transportation	-11.0907
▁Woman	-11.0907
▁participation	-11.0912
▁modification	-11.0914
▁remote	-11.0919
▁scandal	-11.0919
▁samples	-11.092
▁Clarke	-11.0923
uz	-11.0926
▁Room	-11.0929
▁Fund	-11.0937
▁pen	-11.0941
▁epi	-11.0946
▁Gay	-11.095
▁Wilhelm	-11.0951
▁Nova	-11.0951
bat	-11.0955
▁girlfriend	-11.0956
▁Parsons	-11.0961
▁imprison	-11.0965
▁multiplay	-11.0967
▁crush	-11.0968
▁fa	-11.0971
64	-11.0971
▁epic	-11.0972
aya	-11.0976
▁Ivan	-11.0976
get	-11.0979
▁remind	-11.0979
▁prices	-11.098
▁tough	-11.0986
heim	-11.0987
▁brilliant	-11.0988
▁Maha	-11.099
eh	-11.0992
▁wet	-11.0994
▁Armstrong	-11.0999
▁widow	-11.0999
▁Marc	-11.1001
én	-11.1005
ility	-11.1007
▁Danish	-11.1008
▁02	-11.1008
▁Half	-11.1009
▁Chelsea	-11.1009
▁salary	-11.1009
tta	-11.1011
▁formula	-11.1015
▁CE	-11.1017
▁grandfather	-11.102
▁papers	-11.1021
▁surge	-11.1022
▁noise	-11.1022
HL	-11.1023
▁principle	-11.1032
▁crops	-11.1038
ook	-11.1039
▁Break	-11.104
▁expectation	-11.104
▁Musical	-11.1044
▁pur	-11.1044
44	-11.1045
▁Kur	-11.1045
▁Cathedral	-11.1047
▁rocket	-11.1049
▁slight	-11.1052
▁playoff	-11.1055
▁Lan	-11.1056
▁Rama	-11.1056
▁carrie	-11.1056
▁Quebec	-11.1058
▁Buffalo	-11.1063
▁sick	-11.1063
▁wrestler	-11.1067
▁recurring	-11.1074
▁DS	-11.1074
▁speculat	-11.1077
▁diverse	-11.1081
▁Fourth	-11.1088
▁beating	-11.1088
▁Fisher	-11.1088
▁dinosaur	-11.109
▁vulnerable	-11.109
▁dinner	-11.1091
▁Ob	-11.1092
rit	-11.1094
▁revival	-11.11
▁Cultural	-11.1101
▁orange	-11.1101
▁onward	-11.1103
55	-11.1104
▁significance	-11.1106
▁Place	-11.1107
▁principles	-11.111
▁mixture	-11.1112
▁Walt	-11.1113
▁Greater	-11.1114
▁Authority	-11.1114
▁Fl	-11.1114
▁recovery	-11.1115
▁Agency	-11.1115
▁breast	-11.1116
▁Spider	-11.1123
▁enable	-11.1126
▁borrow	-11.1128
▁advertisement	-11.1129
▁Din	-11.1131
▁statistics	-11.1139
▁Male	-11.1141
▁Minor	-11.1141
▁Euro	-11.1142
where	-11.1142
▁conquest	-11.1144
▁valid	-11.1149
EC	-11.1151
▁enact	-11.1152
▁chas	-11.1153
▁tribe	-11.1156
▁Stuart	-11.116
▁Monster	-11.1162
take	-11.1162
▁Serbian	-11.1162
▁Pictures	-11.1164
▁conclude	-11.1164
onia	-11.1168
▁beats	-11.117
▁platforms	-11.1172
▁variable	-11.1177
▁mytholog	-11.1178
cur	-11.1178
▁confirm	-11.1179
▁Sri	-11.1181
▁Orleans	-11.1182
▁terminal	-11.1182
▁Tyler	-11.1183
▁interaction	-11.1187
▁descent	-11.1188
itis	-11.119
itch	-11.1191
▁Kor	-11.1192
▁Bern	-11.1194
61	-11.1196
▁unexpected	-11.1198
▁Regional	-11.1199
▁outcome	-11.1199
▁Associat	-11.12
▁clothes	-11.12
▁error	-11.12
▁Utah	-11.1204
bia	-11.1205
band	-11.1206
▁rebels	-11.1209
▁Der	-11.1209
▁Nas	-11.121
▁kilometer	-11.1215
▁steer	-11.1216
▁rug	-11.1216
▁lecture	-11.1216
▁consolidat	-11.122
▁efficient	-11.122
▁traveling	-11.1221
▁1861	-11.1223
▁Harold	-11.1226
▁opin	-11.1228
▁requir	-11.123
▁connections	-11.1231
▁Charlotte	-11.1231
▁drift	-11.1232
▁descendant	-11.1234
▁Pine	-11.1235
ander	-11.1235
▁cathedral	-11.1237
▁installation	-11.1238
▁chest	-11.1242
▁Typhoon	-11.1242
nam	-11.1245
▁CBS	-11.1247
▁1889	-11.1251
▁dome	-11.1253
▁mock	-11.1253
▁FIFA	-11.1258
▁Sultan	-11.1259
▁Constantine	-11.1259
▁pa	-11.1261
eau	-11.1265
▁Gan	-11.1266
▁Metropolitan	-11.1269
▁hatch	-11.1271
▁Justin	-11.1273
▁Im	-11.1274
sville	-11.1277
▁Lea	-11.1279
▁mood	-11.1279
▁Ran	-11.1279
gna	-11.1281
▁Years	-11.1289
jur	-11.129
pec	-11.1292
▁Link	-11.1294
▁Muhammad	-11.1297
▁Sonic	-11.1298
▁Jar	-11.1299
▁Bulgarian	-11.13
read	-11.13
▁killer	-11.1306
▁substance	-11.1308
▁1894	-11.131
▁Newton	-11.1311
night	-11.1312
▁Student	-11.1314
box	-11.1319
▁ni	-11.132
▁Mall	-11.1322
▁pm	-11.1325
▁destination	-11.1326
▁theories	-11.133
▁experiments	-11.1334
▁widen	-11.1336
▁Want	-11.1338
▁scholarship	-11.1342
▁dual	-11.1346
▁Lar	-11.1346
▁screenplay	-11.1348
▁1000	-11.1349
borough	-11.135
▁competitor	-11.1352
▁persuad	-11.1355
▁diplomatic	-11.1355
▁pale	-11.1365
▁physic	-11.1365
▁Wells	-11.1366
▁elite	-11.1366
▁lifetime	-11.1368
▁heritage	-11.1369
▁Reich	-11.137
▁commanding	-11.1372
▁boost	-11.1375
▁Pete	-11.1377
▁batt	-11.1379
▁Executive	-11.138
tain	-11.138
▁variation	-11.1382
▁Bible	-11.1382
▁Spin	-11.1385
▁decisive	-11.1385
▁Freedom	-11.1392
▁1891	-11.1393
ulu	-11.1394
▁Tin	-11.1395
▁empty	-11.1397
▁rejoin	-11.1397
▁invest	-11.1397
▁flows	-11.1398
▁saving	-11.1411
▁Pr	-11.1414
▁Rhodes	-11.1414
▁joke	-11.1416
place	-11.1418
▁Fen	-11.1419
eus	-11.1421
▁Jamaica	-11.1424
▁YouTube	-11.1424
▁southeastern	-11.1424
▁texts	-11.1425
▁lord	-11.1427
rel	-11.1431
▁interact	-11.1439
▁provinces	-11.1439
▁Thor	-11.1439
▁Falls	-11.1443
▁coordinate	-11.1447
▁nice	-11.1452
▁harmon	-11.1457
▁evident	-11.1458
▁confusion	-11.1458
▁Cardiff	-11.1458
▁bulk	-11.1463
▁agriculture	-11.1463
▁Zone	-11.1467
▁processes	-11.1468
▁Steel	-11.1469
▁barrier	-11.147
▁sto	-11.1471
gal	-11.1471
▁reliev	-11.1473
oni	-11.1474
▁dwarf	-11.1475
▁Grade	-11.1475
▁Pit	-11.148
▁telephone	-11.148
▁curv	-11.1484
▁Register	-11.1486
iac	-11.1486
ides	-11.1487
▁1892	-11.1488
phi	-11.1488
▁golden	-11.1491
▁Code	-11.1491
▁timber	-11.1491
▁Kyle	-11.1492
▁grain	-11.1492
▁magazines	-11.1493
▁talks	-11.1497
▁millimeter	-11.1497
▁precise	-11.1497
▁Was	-11.1498
▁trap	-11.15
▁nose	-11.1503
▁devoted	-11.1507
fight	-11.1509
▁biological	-11.1509
▁sings	-11.1511
▁Leo	-11.1511
▁proof	-11.1511
▁aft	-11.1513
▁Symphony	-11.1514
▁pound	-11.1516
▁movies	-11.1516
▁measurement	-11.1517
▁scenario	-11.152
▁troop	-11.1521
▁complement	-11.1525
▁possess	-11.1528
pur	-11.1532
▁Shiva	-11.1534
▁followers	-11.1535
▁sin	-11.1535
▁literal	-11.1537
▁Scar	-11.1541
▁1800	-11.1544
▁240	-11.1547
▁cook	-11.1548
▁infrastructure	-11.1548
▁Conservation	-11.1548
▁illustrat	-11.1555
▁lion	-11.1556
▁Then	-11.1556
▁Wisconsin	-11.1559
▁extinct	-11.1561
▁communications	-11.1561
▁oriented	-11.1564
▁Orchestra	-11.1565
▁pregnant	-11.1565
▁Until	-11.1565
▁Av	-11.1565
▁Rosa	-11.1565
▁Nat	-11.1565
▁Ground	-11.1565
▁Services	-11.1565
▁pink	-11.1568
▁accumulat	-11.1572
▁Non	-11.1573
▁observer	-11.1576
▁markets	-11.1581
▁Nature	-11.1589
▁Danny	-11.1589
▁Watch	-11.1596
▁dimension	-11.1601
▁Sox	-11.1604
▁Cavalry	-11.1604
▁Ara	-11.1606
▁asset	-11.1606
oi	-11.1608
▁senator	-11.1613
▁sailing	-11.1616
ogen	-11.1618
▁categorie	-11.1621
▁outfit	-11.1623
▁bowler	-11.1624
▁Islamic	-11.1625
▁ordinar	-11.1628
▁Actress	-11.1629
ake	-11.1631
▁Flag	-11.1631
▁Jerusalem	-11.1633
▁resort	-11.1633
▁Oscar	-11.1633
▁rotation	-11.1634
▁retail	-11.1634
bor	-11.1635
▁applications	-11.1635
▁refugee	-11.1642
▁Branch	-11.1643
uan	-11.1643
▁manuscript	-11.1644
▁Attorney	-11.1644
▁peninsula	-11.1644
▁Come	-11.1645
▁Joan	-11.165
▁knight	-11.1651
▁clan	-11.1655
▁generate	-11.1655
▁fertil	-11.1656
put	-11.1656
▁afford	-11.1656
▁resolv	-11.1656
▁highways	-11.1659
▁census	-11.1661
▁pal	-11.1662
▁drown	-11.1667
▁tackle	-11.1669
▁inning	-11.167
▁Airlines	-11.1673
▁commenting	-11.168
▁Boeing	-11.168
▁Highland	-11.1685
▁disabl	-11.1686
▁impressive	-11.1688
▁cash	-11.1692
▁Row	-11.1693
▁Father	-11.1698
▁arena	-11.17
▁Again	-11.1701
▁Brooks	-11.1702
41	-11.1707
▁Panzer	-11.1708
▁Montgomery	-11.1713
▁censor	-11.1713
▁1888	-11.1716
▁104	-11.1719
▁fortune	-11.172
mond	-11.1723
▁overlook	-11.1724
▁Wo	-11.1726
▁Pierre	-11.1727
▁pupil	-11.1728
▁blast	-11.1729
▁Cou	-11.173
▁realistic	-11.1736
▁Syn	-11.1738
▁alert	-11.1738
▁hang	-11.1741
▁manufacturer	-11.1745
▁Chapel	-11.175
▁promot	-11.175
▁Czech	-11.1753
▁proceeding	-11.1755
▁Barnes	-11.1761
▁autobiograph	-11.1762
▁Ker	-11.1762
▁lesson	-11.1765
▁comprise	-11.1765
▁Scots	-11.1765
▁Make	-11.1765
▁mineral	-11.1767
▁Draft	-11.177
▁remov	-11.1773
smith	-11.1775
▁spawn	-11.1776
▁Turkey	-11.1777
▁speculation	-11.1781
▁lighting	-11.1783
34	-11.1786
▁Cemetery	-11.1788
▁Independence	-11.1788
▁vital	-11.1789
▁hostile	-11.1791
▁bench	-11.1792
▁drain	-11.1792
▁Saturn	-11.1794
▁counterpart	-11.1794
▁MacArthur	-11.1799
▁cylinder	-11.1799
▁Baltic	-11.1802
▁Isle	-11.1802
▁prop	-11.1803
▁Sherman	-11.1806
▁equally	-11.1808
▁1885	-11.1809
asa	-11.1815
▁naming	-11.1817
▁bats	-11.1819
ann	-11.1825
▁Century	-11.1828
▁metric	-11.1829
▁Raj	-11.183
▁captur	-11.1834
cap	-11.1835
▁Sean	-11.1841
▁relation	-11.1843
▁109	-11.1843
68	-11.1847
lig	-11.1852
▁revers	-11.1855
▁Burns	-11.1861
▁infant	-11.1862
▁Evil	-11.1863
▁swing	-11.1865
▁twist	-11.1873
▁airing	-11.1874
▁Leaf	-11.1874
▁Resident	-11.1875
▁gene	-11.1876
▁refin	-11.188
▁dependent	-11.188
etta	-11.188
▁explaining	-11.188
▁Set	-11.1881
▁strand	-11.1881
awa	-11.1881
ducted	-11.1882
ras	-11.1883
▁reforms	-11.1884
▁Rear	-11.1886
▁111	-11.1888
▁warships	-11.1889
▁traditions	-11.189
▁rumor	-11.1893
▁amendment	-11.1893
▁Barn	-11.1897
▁municipal	-11.1899
▁oversee	-11.1904
▁concurrent	-11.1905
navy	-11.1906
▁settle	-11.1908
▁Form	-11.1911
▁Fra	-11.1915
▁Management	-11.1922
▁closure	-11.1922
▁hurt	-11.1922
▁comment	-11.1928
dium	-11.1929
for	-11.1935
odi	-11.1941
▁galax	-11.1946
▁circular	-11.1946
tag	-11.1947
▁dying	-11.195
▁intent	-11.1952
▁Start	-11.1953
▁Reagan	-11.1953
ij	-11.1956
▁Thames	-11.1957
▁taxe	-11.1957
▁Glee	-11.1959
▁Kam	-11.1959
uf	-11.196
▁scrap	-11.1962
▁romance	-11.1963
▁suspension	-11.1969
▁Barbara	-11.1969
▁bitter	-11.1971
▁disagree	-11.1974
▁Article	-11.198
▁predators	-11.1981
nu	-11.1982
▁separation	-11.1983
▁Tribune	-11.1986
▁Heavyweight	-11.1986
▁Against	-11.1987
▁Shah	-11.199
load	-11.199
▁Organization	-11.1992
▁distinction	-11.1997
lle	-11.1998
▁Fun	-11.1998
bol	-11.1998
▁Romney	-11.1998
▁columns	-11.2003
▁dust	-11.2009
▁Card	-11.2009
▁parliamentar	-11.2009
IS	-11.201
▁manufacturing	-11.201
▁rider	-11.2012
▁myster	-11.2012
▁1865	-11.2014
▁Athens	-11.2016
key	-11.2019
▁doctrine	-11.2022
▁mut	-11.2022
▁bomber	-11.2025
▁subsid	-11.2025
▁camps	-11.2027
▁homosexual	-11.2028
▁velocity	-11.2028
▁Nam	-11.2031
▁101	-11.2031
lli	-11.2031
AS	-11.2032
▁daughters	-11.2034
▁Planet	-11.2037
▁Walk	-11.204
SP	-11.2042
cra	-11.2044
▁enroll	-11.2045
▁Sport	-11.2045
▁por	-11.2045
▁volcanic	-11.2045
▁blend	-11.2046
PC	-11.2048
TC	-11.2049
▁handling	-11.2051
▁custom	-11.2052
▁Ap	-11.2052
▁Comedy	-11.2054
▁continent	-11.2056
▁stroke	-11.2057
▁Plain	-11.2059
▁shortage	-11.206
▁Rogers	-11.2062
▁abroad	-11.2063
▁Robin	-11.2068
▁Miles	-11.2068
▁Lock	-11.2069
▁Shadow	-11.2069
▁leaf	-11.207
▁segments	-11.2073
▁Action	-11.2074
▁Animal	-11.2075
▁harsh	-11.2075
▁NATO	-11.2075
▁Swa	-11.2076
▁pav	-11.2077
▁Nancy	-11.2078
weight	-11.2078
43	-11.208
ffer	-11.2085
▁universities	-11.2086
▁978	-11.2086
anna	-11.2086
▁egg	-11.2088
▁cattle	-11.2088
▁corps	-11.2091
brook	-11.2092
▁Bear	-11.2092
▁tele	-11.2094
▁canon	-11.2094
▁client	-11.2099
▁Poe	-11.21
▁hills	-11.2104
▁unveil	-11.2105
▁sinking	-11.2108
▁crimes	-11.2113
▁Cry	-11.2116
▁Chester	-11.2119
ttle	-11.2121
▁functional	-11.2122
▁Cyclone	-11.2123
▁persons	-11.2125
▁compromise	-11.2125
▁Ernest	-11.2129
▁Spi	-11.2134
▁kills	-11.2136
▁dri	-11.2139
▁belonging	-11.214
ED	-11.2144
tine	-11.2146
▁physician	-11.2147
▁usage	-11.2147
▁Portugal	-11.2153
▁districts	-11.2157
▁Opera	-11.2159
▁carriage	-11.2162
▁laps	-11.2168
▁bottle	-11.2171
▁disturb	-11.2177
uka	-11.2178
▁crop	-11.218
rina	-11.2183
▁Constantinople	-11.2183
58	-11.2184
▁450	-11.2186
▁Representatives	-11.2187
lio	-11.2193
▁Angle	-11.2193
are	-11.2194
▁Newcastle	-11.2195
▁Sid	-11.2196
▁bears	-11.2196
▁Duch	-11.22
▁trait	-11.2204
fshore	-11.2205
▁studying	-11.2205
▁participants	-11.2206
▁rushing	-11.2213
lat	-11.2213
▁assessment	-11.2215
▁towers	-11.2215
bon	-11.2216
born	-11.2218
▁massacre	-11.2219
▁millimetre	-11.2219
▁Personnel	-11.2219
▁José	-11.2219
RC	-11.2221
▁Sil	-11.2222
▁Rep	-11.2225
▁Joint	-11.2226
▁teach	-11.2229
▁Eddie	-11.2232
▁Continental	-11.2232
▁Pas	-11.2236
▁strange	-11.2237
▁ambassador	-11.2237
▁Future	-11.2238
▁Drake	-11.2241
ily	-11.2242
▁CO	-11.2244
▁volunteers	-11.2244
▁enhanc	-11.2245
▁batteries	-11.2247
bank	-11.2247
▁Ancient	-11.2249
▁cheap	-11.2249
▁Turn	-11.225
▁Marshal	-11.2251
▁Gla	-11.2252
▁pipe	-11.2252
▁Mari	-11.2252
ree	-11.2254
▁define	-11.2256
▁squadrons	-11.2256
▁Cena	-11.2259
▁demographic	-11.2261
▁debri	-11.2261
▁cards	-11.2264
▁concerning	-11.2266
▁ceiling	-11.2267
▁Sex	-11.2269
▁Eight	-11.2273
▁Tournament	-11.2273
▁Ski	-11.2274
▁MS	-11.2276
moto	-11.2278
stad	-11.2279
▁Gibraltar	-11.228
▁enzyme	-11.228
▁Krist	-11.228
▁painter	-11.2282
▁1864	-11.2283
▁suspected	-11.2283
▁endors	-11.2283
▁organisms	-11.2285
▁Laboratory	-11.2286
▁horizontal	-11.2286
▁Brad	-11.2287
▁Cornwall	-11.2292
▁admit	-11.2292
▁choir	-11.2298
▁Liberty	-11.2299
▁Standard	-11.2299
▁ion	-11.23
▁doors	-11.2301
▁poster	-11.2302
▁housed	-11.2304
▁blues	-11.2307
rack	-11.2308
ech	-11.2308
▁extract	-11.2309
▁boyfriend	-11.231
hard	-11.2311
▁Archbishop	-11.2316
▁genuine	-11.2316
▁ballot	-11.2316
▁cor	-11.2316
▁reactions	-11.2319
▁lighter	-11.2321
▁Affairs	-11.2321
▁goddess	-11.2322
▁cyclones	-11.2323
jan	-11.2326
▁operates	-11.2326
▁ERA	-11.2327
mir	-11.2328
▁Rud	-11.2334
▁shadow	-11.2335
▁commanders	-11.2336
▁Strait	-11.2337
▁indigenous	-11.2338
▁Lower	-11.234
▁Malcolm	-11.2347
▁juvenile	-11.2347
▁navigation	-11.2348
▁kings	-11.2353
rah	-11.2357
▁polar	-11.2358
▁Meteorological	-11.2359
▁Career	-11.236
▁exists	-11.2363
▁helicopter	-11.2364
▁transmission	-11.2365
▁corporate	-11.2371
▁Gabriel	-11.2371
▁gods	-11.2372
▁Round	-11.2374
▁Boulevard	-11.2377
▁Youth	-11.238
▁referee	-11.2382
▁wa	-11.2383
▁easier	-11.2383
▁Isaac	-11.2383
▁cameo	-11.2388
▁Kenneth	-11.2389
▁random	-11.2391
some	-11.2395
▁logo	-11.2395
▁remake	-11.2396
tam	-11.2397
▁Zu	-11.2399
cro	-11.2402
▁definite	-11.2404
▁metre	-11.2404
▁pier	-11.2405
▁consumption	-11.2414
▁Leicester	-11.2414
▁deputy	-11.2414
▁fulfill	-11.2416
▁options	-11.2418
▁insert	-11.2419
via	-11.2419
▁corn	-11.242
▁transit	-11.242
▁gam	-11.2421
▁NA	-11.2424
▁attribute	-11.2425
▁scrapp	-11.2427
gram	-11.2432
▁vocalist	-11.2433
▁DJ	-11.2434
▁Devon	-11.2438
▁flesh	-11.2439
▁measur	-11.2443
▁Dur	-11.2444
▁Capital	-11.2445
▁premise	-11.2445
▁prefer	-11.2447
23	-11.2448
▁Commissioner	-11.2448
▁Alberta	-11.2449
▁excess	-11.2449
▁Pedro	-11.2452
▁rivals	-11.2453
▁visits	-11.2453
87	-11.2453
▁resignation	-11.246
▁nurse	-11.2462
▁varie	-11.2463
▁Energy	-11.2463
▁Dublin	-11.2464
▁Cher	-11.2466
▁dies	-11.2468
Without	-11.247
▁Chamberlain	-11.247
▁Schu	-11.2471
▁suppress	-11.2472
▁Rush	-11.2481
▁Bran	-11.2482
▁Cru	-11.2486
▁Deb	-11.2487
▁dreadnought	-11.2488
Hg	-11.2488
▁occurr	-11.2495
▁punishment	-11.2495
▁Too	-11.2497
▁displays	-11.2498
▁Friends	-11.2501
▁ties	-11.2502
stock	-11.2503
▁rotat	-11.2503
uda	-11.2504
▁1862	-11.2507
AT	-11.2507
▁statements	-11.2511
▁Wu	-11.2511
▁rescu	-11.2512
▁Electronic	-11.252
▁stern	-11.252
▁Adventure	-11.2521
▁Hey	-11.2523
▁Islam	-11.2525
lit	-11.2525
agi	-11.2525
nk	-11.2527
▁restrictions	-11.2528
▁pounder	-11.253
▁industrie	-11.2532
▁Origin	-11.2534
ridge	-11.2535
far	-11.2535
▁Burke	-11.2536
▁campaigns	-11.2536
▁corresponding	-11.2537
▁releas	-11.2537
DA	-11.2537
▁nephew	-11.2538
▁Crystal	-11.2538
▁Bradley	-11.254
▁relat	-11.254
▁Yugoslavia	-11.2545
▁Machine	-11.2545
▁stripp	-11.2546
▁centers	-11.2549
98	-11.2551
▁loud	-11.2552
DOT	-11.2554
▁collision	-11.2557
▁Guild	-11.2559
77	-11.2565
▁Michel	-11.2567
▁advocat	-11.2567
▁licens	-11.2568
▁territorial	-11.2569
▁observe	-11.2572
▁disappointed	-11.2575
▁Number	-11.2575
▁benefits	-11.2577
▁supervis	-11.2578
▁Romanian	-11.258
▁vicinit	-11.2582
▁Dennis	-11.2582
▁Ry	-11.2588
▁clo	-11.259
TV	-11.2591
▁shipment	-11.2592
▁Dal	-11.2594
▁triumph	-11.2594
▁kilogram	-11.2594
▁Kaiser	-11.2595
▁Julian	-11.2597
inus	-11.26
▁expert	-11.2601
▁Cas	-11.2601
▁corridor	-11.2607
atus	-11.2613
▁Dakota	-11.2613
▁complicated	-11.2613
▁thunderstorm	-11.2613
▁judges	-11.2613
▁positively	-11.2615
22	-11.2616
▁variations	-11.2617
▁Pac	-11.2618
▁rapper	-11.262
▁stall	-11.2622
▁Sara	-11.2623
▁Ir	-11.2624
▁parks	-11.2624
fort	-11.2624
▁Political	-11.2626
pri	-11.2632
▁Historian	-11.2635
▁Est	-11.2636
▁organic	-11.2637
▁customers	-11.2638
▁Lamb	-11.2638
▁Hearts	-11.264
▁revolutionary	-11.2641
▁hence	-11.2641
▁user	-11.2641
hol	-11.2643
▁violat	-11.2645
▁mixing	-11.2646
▁circulat	-11.2647
▁Shar	-11.2649
▁sweep	-11.2651
▁ferry	-11.2651
▁roster	-11.2651
illo	-11.2651
▁beliefs	-11.2653
▁charm	-11.2657
▁barrel	-11.2657
▁Churchill	-11.266
▁Serbia	-11.266
mill	-11.2662
▁Springfield	-11.2665
▁Gas	-11.2667
▁approache	-11.2667
▁Ellis	-11.2668
cum	-11.2669
▁blam	-11.2669
▁confident	-11.267
▁Morning	-11.267
▁Jake	-11.2671
▁infect	-11.2672
▁hail	-11.2673
right	-11.2674
ult	-11.2675
▁congregation	-11.2677
▁Range	-11.2677
▁comp	-11.2679
▁particles	-11.2679
▁burst	-11.268
▁convicted	-11.2681
SU	-11.2681
wich	-11.2684
wl	-11.2685
▁Tommy	-11.2689
aud	-11.2689
▁reader	-11.2691
▁220	-11.2692
▁settlements	-11.2696
▁humanity	-11.2696
▁prayer	-11.2697
▁reconstruction	-11.2698
▁inaugural	-11.2701
▁Alliance	-11.2701
▁Roberts	-11.2702
▁screening	-11.2703
▁steadi	-11.2707
▁Studies	-11.2709
▁Hat	-11.2713
boy	-11.2713
yard	-11.2715
▁fluid	-11.2718
▁consumer	-11.272
▁PS	-11.272
▁breach	-11.272
▁Pala	-11.2724
▁Berg	-11.2725
▁1840	-11.2726
▁Concert	-11.2727
erman	-11.2727
▁Taiwan	-11.2727
jar	-11.2727
▁instant	-11.2729
▁mansion	-11.2729
▁Stage	-11.273
▁honest	-11.2733
ddle	-11.2737
dri	-11.2739
vet	-11.2742
▁Mine	-11.2743
▁Hull	-11.2744
▁Brand	-11.2744
▁sympath	-11.2746
▁mysterious	-11.2746
▁voters	-11.2747
▁sheep	-11.2749
▁Wagner	-11.2752
▁sentiment	-11.2757
▁Blake	-11.276
roll	-11.2761
▁Inside	-11.2763
nor	-11.2763
▁Malta	-11.2763
▁Mis	-11.2764
▁silent	-11.2765
wig	-11.2767
▁Friedrich	-11.2771
▁domain	-11.2771
▁Il	-11.2771
▁Filming	-11.2779
uv	-11.2779
▁Montana	-11.278
▁wonder	-11.278
▁Fear	-11.2786
▁Sor	-11.2788
ichi	-11.2789
NC	-11.279
▁exterior	-11.279
▁stain	-11.2794
▁Maine	-11.2797
▁mat	-11.2797
▁Serb	-11.28
▁Cincinnati	-11.2803
▁publish	-11.2803
pit	-11.2807
▁Ages	-11.2809
▁conspiracy	-11.281
agh	-11.2811
try	-11.2813
phon	-11.2814
▁arose	-11.2816
▁Olivia	-11.2816
▁Bears	-11.2817
▁Hop	-11.2818
▁tools	-11.2818
ago	-11.2823
▁lung	-11.2824
▁Nation	-11.2825
▁sharks	-11.2825
▁combine	-11.2825
▁Lou	-11.2826
▁cri	-11.2827
▁nationalist	-11.2832
▁gathering	-11.2835
▁permit	-11.2842
▁lasting	-11.2846
▁Hood	-11.2847
▁102	-11.2847
▁gunner	-11.2848
▁Poly	-11.2855
▁slot	-11.2856
▁Tal	-11.286
▁Steam	-11.286
▁counsel	-11.2861
▁mutual	-11.2861
llied	-11.2864
▁threatening	-11.2864
rou	-11.2865
das	-11.2865
▁mammals	-11.2866
▁Pot	-11.2866
▁spider	-11.2867
▁Normandy	-11.2868
▁sentenc	-11.2875
gam	-11.2876
▁Sher	-11.2877
wel	-11.2878
▁Ever	-11.2884
rre	-11.2887
▁Afghanistan	-11.2887
▁Shield	-11.2887
▁stunt	-11.2887
▁VIII	-11.2895
lot	-11.2895
▁outdoor	-11.29
▁Austro	-11.29
▁accessibl	-11.2904
▁Mind	-11.2905
▁maps	-11.2906
viation	-11.291
▁din	-11.2911
▁Yugoslav	-11.2912
iti	-11.2912
▁HD	-11.2912
▁sphere	-11.2913
ür	-11.2914
▁Large	-11.2917
▁Circle	-11.2919
ault	-11.292
▁Arena	-11.2921
▁Gall	-11.2926
▁1887	-11.2929
hart	-11.2931
▁skeleton	-11.2932
▁Madison	-11.2933
▁Tree	-11.2934
print	-11.2935
▁bath	-11.2936
▁assassination	-11.2936
▁Ful	-11.2937
▁Edmund	-11.2945
▁installment	-11.2946
▁Rich	-11.2947
▁dropping	-11.2951
▁Twitter	-11.2951
▁outstanding	-11.2952
▁Curtis	-11.2952
▁feathers	-11.2952
▁patent	-11.2952
▁Roth	-11.2953
▁specializ	-11.2953
▁colours	-11.2953
▁Marines	-11.2956
▁ka	-11.2958
▁filmmaker	-11.2958
▁clergy	-11.2958
▁Def	-11.296
▁liver	-11.296
▁challenges	-11.2969
▁mad	-11.2975
ush	-11.2978
▁LP	-11.2979
▁1863	-11.298
▁Brook	-11.2981
▁invent	-11.2982
BA	-11.2984
▁mild	-11.2985
▁asserted	-11.299
ota	-11.299
▁medals	-11.2991
▁flaw	-11.2992
▁trio	-11.2996
78	-11.2999
RS	-11.3001
▁Vegas	-11.3001
▁1886	-11.3002
▁quarters	-11.3003
▁Technology	-11.301
▁routing	-11.301
▁defect	-11.301
▁Gregory	-11.301
buck	-11.3011
nz	-11.3014
▁plates	-11.3014
▁Former	-11.3015
▁Bun	-11.3015
▁Orton	-11.3017
zon	-11.3017
▁migration	-11.3019
▁blockade	-11.3022
▁Got	-11.3027
▁Anton	-11.303
▁Milan	-11.303
▁JNA	-11.3031
▁Hir	-11.3033
pot	-11.3035
LA	-11.3035
▁Baptist	-11.3036
▁intermediate	-11.3036
▁gauge	-11.3036
▁Schumach	-11.3036
▁Eagle	-11.3043
▁exploration	-11.3047
▁Kara	-11.3049
▁varying	-11.3049
▁Mercury	-11.3049
▁Brooklyn	-11.3049
▁Eli	-11.3055
▁Math	-11.3056
tail	-11.3056
▁fungus	-11.3056
▁teenager	-11.3061
▁judicial	-11.3063
▁courses	-11.3063
ingham	-11.3066
▁fragment	-11.3067
▁MLB	-11.3069
▁rot	-11.307
▁AC	-11.307
▁rely	-11.3073
▁Urban	-11.3076
▁ju	-11.3078
▁vol	-11.3079
▁sketch	-11.3083
08	-11.3083
▁grid	-11.3084
poli	-11.3086
wy	-11.3091
▁Leeds	-11.3093
▁harbor	-11.3095
▁Ji	-11.3098
▁Hubbard	-11.3102
▁anthem	-11.3103
▁Hel	-11.3105
mme	-11.3106
▁Heath	-11.3108
▁faculty	-11.3109
▁swept	-11.3109
▁submerg	-11.3109
▁readi	-11.3112
▁Comics	-11.3114
▁Solar	-11.3114
mur	-11.3116
▁Herbert	-11.3117
▁AM	-11.3118
world	-11.3119
ail	-11.3119
▁Barb	-11.3119
▁tun	-11.3119
▁witnesses	-11.3121
▁eliminate	-11.3124
▁Princeton	-11.3127
▁independently	-11.3127
▁Holland	-11.3127
▁McKinley	-11.3128
▁milk	-11.3129
▁commend	-11.3135
▁Banks	-11.3136
▁Iran	-11.3137
▁Talk	-11.3138
▁psychological	-11.3142
▁emission	-11.3142
▁bombard	-11.3143
▁Name	-11.3144
osis	-11.3145
▁enormous	-11.3148
▁zero	-11.3149
▁Lor	-11.3156
hir	-11.3158
▁Buddhist	-11.3162
▁declaration	-11.3164
RT	-11.3174
▁Tigers	-11.3175
▁Ghost	-11.3175
▁martial	-11.3175
▁rebel	-11.318
▁corporation	-11.3181
▁confin	-11.3182
anu	-11.3182
▁1884	-11.3184
▁magnetic	-11.3189
▁Twin	-11.3192
▁NASA	-11.3195
▁Month	-11.3196
▁allegation	-11.3197
reby	-11.3197
▁App	-11.3201
▁consequence	-11.3202
late	-11.3204
▁Josh	-11.3204
ige	-11.3207
▁zoo	-11.3212
▁resolve	-11.3214
▁undi	-11.3215
▁spur	-11.3217
▁stability	-11.3217
▁Theater	-11.3217
▁Computer	-11.3221
▁Viking	-11.3223
▁coastline	-11.3223
▁detect	-11.3225
▁excessive	-11.323
▁Bir	-11.3232
▁irregular	-11.3235
▁stor	-11.3237
▁Titan	-11.3238
▁Starr	-11.3239
▁cuts	-11.324
▁Ant	-11.3241
▁Jacque	-11.3241
▁Total	-11.3242
▁saint	-11.3242
▁murdered	-11.3244
▁violation	-11.3246
94	-11.3247
▁Glasgow	-11.3248
▁holes	-11.325
▁ceremoni	-11.3252
▁Lion	-11.3252
▁acquisition	-11.3255
▁insurance	-11.3255
▁ambush	-11.3255
▁confused	-11.3255
▁voices	-11.3255
uous	-11.3256
▁fed	-11.3257
▁Grave	-11.3261
▁decoration	-11.3261
▁Canucks	-11.3262
▁harvest	-11.3268
▁flown	-11.3269
gli	-11.3269
▁Franco	-11.3272
▁challenging	-11.3275
▁fortifications	-11.3275
une	-11.3275
▁locomotives	-11.3276
link	-11.3276
ifying	-11.3278
▁breath	-11.3278
▁rice	-11.3278
▁torpedoes	-11.328
▁comics	-11.3288
▁touchdowns	-11.3288
▁calm	-11.3292
▁cotton	-11.3295
▁tram	-11.3298
▁Alpha	-11.3303
▁ease	-11.3305
▁Train	-11.3306
▁adjust	-11.3307
lap	-11.3309
▁Whi	-11.3312
▁deployment	-11.3312
▁tender	-11.3313
▁Fifth	-11.3315
▁Phillies	-11.3315
▁uprising	-11.3315
▁Strong	-11.3316
▁blame	-11.3319
▁Theodore	-11.332
▁Que	-11.332
▁Ottawa	-11.3322
eller	-11.3323
eva	-11.3325
▁Fab	-11.3326
▁Sav	-11.3327
▁Millennium	-11.3329
▁diversity	-11.3329
▁worse	-11.3329
▁Tintin	-11.333
▁Model	-11.3336
▁Westminster	-11.3336
▁Denver	-11.3337
▁UB	-11.3338
84	-11.3345
▁diminish	-11.3349
▁Malay	-11.3351
▁Sword	-11.3352
▁Sla	-11.3353
▁Otto	-11.3353
▁emerge	-11.3354
▁Nevada	-11.3356
▁rains	-11.3356
▁ensur	-11.3357
▁Percy	-11.3358
▁Bee	-11.336
▁averag	-11.3362
▁Lil	-11.3367
▁BCE	-11.337
▁Chuck	-11.3372
iest	-11.3372
▁Burn	-11.3372
▁CEO	-11.3377
▁Basketball	-11.3383
▁jail	-11.3384
▁Swan	-11.3385
▁Letter	-11.3386
▁quest	-11.3387
▁1877	-11.3389
▁collector	-11.3389
rik	-11.339
▁Southeast	-11.3391
▁Sc	-11.3392
▁Current	-11.3396
▁aesthetic	-11.3396
▁Gothic	-11.3397
▁myself	-11.3397
▁ver	-11.3398
▁127	-11.3399
▁Tell	-11.34
OR	-11.3401
▁viewing	-11.3406
▁Manuel	-11.3411
oka	-11.3411
▁1876	-11.3414
bald	-11.3415
▁agencies	-11.3417
▁ghost	-11.3417
▁accord	-11.3417
▁engineers	-11.3418
▁donation	-11.3419
▁Pole	-11.3419
▁cemetery	-11.342
▁intend	-11.342
▁couldn	-11.3421
▁jersey	-11.3424
▁Mercedes	-11.3424
mot	-11.3424
stream	-11.3425
▁conviction	-11.3425
▁scores	-11.3426
beaten	-11.3428
▁detected	-11.3429
▁motif	-11.343
Spot	-11.3431
igo	-11.3436
▁lease	-11.3436
▁punch	-11.3438
▁Character	-11.3439
▁beside	-11.3441
star	-11.3443
▁battlefield	-11.3449
▁remarkabl	-11.3449
▁Mack	-11.3451
▁collections	-11.3457
▁intelligent	-11.3458
▁Ellen	-11.3461
▁Albany	-11.3465
▁whale	-11.3467
▁pac	-11.3469
▁hypothesis	-11.3472
▁Emma	-11.3473
▁monster	-11.3475
32	-11.3476
▁exceptional	-11.3478
▁Principal	-11.3478
▁Gloucester	-11.3478
▁aggregate	-11.3478
▁sensitive	-11.3478
▁rebounds	-11.3478
▁Ronald	-11.3479
▁divide	-11.3481
mbo	-11.3483
oz	-11.3485
▁Colin	-11.3485
nate	-11.3486
▁radius	-11.3488
▁Kha	-11.349
MC	-11.3491
▁elevated	-11.3492
▁revenge	-11.3492
▁assignment	-11.3493
▁defendant	-11.3495
▁hint	-11.3496
▁Cox	-11.3498
▁Tru	-11.3504
lai	-11.3505
cke	-11.3506
had	-11.3512
▁eligible	-11.3516
Brien	-11.3516
▁Territory	-11.3519
▁compar	-11.3523
▁col	-11.3527
▁Angelo	-11.3536
▁Chen	-11.3545
cell	-11.3546
▁relate	-11.3549
▁Composition	-11.3554
▁expir	-11.3554
▁resembl	-11.3557
bid	-11.3557
space	-11.356
▁Weather	-11.3561
▁1830	-11.3563
▁Clan	-11.3564
▁achievement	-11.3565
odo	-11.3566
▁si	-11.3566
▁integrated	-11.3566
uli	-11.3568
▁snake	-11.3568
▁declare	-11.3568
▁Delta	-11.3568
card	-11.357
▁prompting	-11.3571
pher	-11.3572
▁threats	-11.3574
▁thanks	-11.3575
▁mast	-11.3579
▁atop	-11.358
▁Pack	-11.3581
▁Economic	-11.3581
▁recipient	-11.3581
▁Canyon	-11.3582
HA	-11.3584
SO	-11.3588
▁Barcelona	-11.3588
▁Pokémon	-11.3588
▁finest	-11.3589
▁testimon	-11.3589
▁lava	-11.3589
cio	-11.359
▁encompass	-11.3595
▁consequent	-11.3595
▁Watt	-11.3599
▁emphasiz	-11.36
▁1875	-11.36
▁flame	-11.36
AR	-11.3601
▁cubic	-11.3607
▁linear	-11.3611
▁Foster	-11.3611
▁Nash	-11.3611
▁specialist	-11.3613
plan	-11.3614
▁guests	-11.3615
▁Metal	-11.3624
▁Petr	-11.3626
▁indirect	-11.363
▁Chu	-11.3632
▁punt	-11.3633
▁Crime	-11.3633
▁steppe	-11.3635
▁Parkway	-11.3636
▁Henderson	-11.3637
▁width	-11.3637
▁archaeological	-11.3637
▁Labor	-11.3641
▁Bou	-11.3642
▁Advance	-11.3642
but	-11.3644
▁Marsh	-11.3645
▁strikes	-11.3648
erg	-11.3648
▁sharing	-11.3649
▁SmackDown	-11.3651
▁Appeal	-11.3651
▁Enix	-11.3652
▁hyper	-11.3653
▁Days	-11.3656
▁enthusiastic	-11.3657
▁abundant	-11.3658
▁Carlos	-11.3659
▁Body	-11.3663
▁ward	-11.3663
▁Bab	-11.3663
▁Raymond	-11.3665
▁fossils	-11.3668
▁weakness	-11.3671
▁230	-11.3674
llen	-11.3676
ope	-11.3679
▁resign	-11.3679
▁persuade	-11.3682
▁Pitt	-11.3683
▁im	-11.3684
▁Single	-11.3685
▁Duncan	-11.3686
▁rational	-11.3687
▁editions	-11.3687
▁Bosnia	-11.3687
▁yd	-11.3688
▁Blair	-11.3688
▁scientist	-11.3689
▁vegetation	-11.3693
▁southwestern	-11.3693
▁Nag	-11.3694
▁Kre	-11.3696
▁Leigh	-11.3697
cca	-11.3698
▁RBI	-11.3701
▁1883	-11.3702
▁Derby	-11.3702
▁Bha	-11.3704
▁memoir	-11.3707
▁smok	-11.3708
▁Mou	-11.3709
▁tier	-11.3711
▁mud	-11.3711
▁Cad	-11.3714
▁bag	-11.3716
▁successive	-11.3719
▁Professional	-11.3721
▁Desert	-11.3721
▁rocks	-11.3721
AM	-11.3725
▁1881	-11.3725
▁reviv	-11.3727
CI	-11.3728
▁notion	-11.3732
▁stake	-11.3732
VA	-11.3732
▁delegation	-11.3735
mount	-11.3735
▁kids	-11.3735
▁bullet	-11.3738
▁properly	-11.374
wal	-11.3741
▁invitation	-11.3742
▁continental	-11.3745
shot	-11.3745
tick	-11.3749
▁procedure	-11.3754
front	-11.3755
▁Vel	-11.3757
▁pine	-11.3757
▁competitions	-11.3759
▁induc	-11.3759
▁Northwest	-11.3763
▁Veronica	-11.3763
▁acquire	-11.3764
▁Step	-11.3765
aria	-11.3766
▁links	-11.3768
▁propaganda	-11.377
▁mortar	-11.377
▁Sud	-11.3774
▁Stalin	-11.3774
▁Por	-11.3775
stand	-11.3777
▁stamp	-11.3777
▁borough	-11.3782
▁Mot	-11.3782
ashi	-11.3784
▁presidenc	-11.3784
▁Rag	-11.3784
rod	-11.3788
iki	-11.3789
bbl	-11.379
▁antagonist	-11.3791
▁cliff	-11.3793
▁quit	-11.3793
▁Powell	-11.3795
▁True	-11.3796
▁Lancashire	-11.3798
▁orchestral	-11.3805
▁tendenc	-11.3806
▁consciousness	-11.3807
▁Richardson	-11.3807
▁hunter	-11.3807
▁coaches	-11.3808
▁sailors	-11.3808
▁Lead	-11.3808
▁landmark	-11.3809
▁Bass	-11.3809
▁Cardinals	-11.3809
▁1869	-11.381
▁190	-11.3813
▁crucial	-11.3814
▁RNA	-11.3819
▁Ferdinand	-11.382
▁damaging	-11.382
▁confess	-11.3822
▁Store	-11.3826
▁ser	-11.3827
▁Calgary	-11.3827
▁detachment	-11.3827
▁submarines	-11.3833
▁ascend	-11.3834
▁Hip	-11.3834
▁verses	-11.3836
refore	-11.3836
▁Lex	-11.3836
▁sprint	-11.3837
▁manag	-11.3838
▁encounters	-11.3838
▁northeastern	-11.3841
comprising	-11.3841
▁bout	-11.3843
aker	-11.3845
▁Hag	-11.3847
▁prevail	-11.3848
▁tan	-11.3848
vil	-11.3851
▁aside	-11.3856
▁spite	-11.3859
▁printing	-11.3861
▁nervous	-11.3862
▁Sab	-11.3864
esque	-11.3865
RI	-11.3867
▁1866	-11.3867
▁Butler	-11.387
▁Div	-11.3871
▁keyboard	-11.3871
versus	-11.3878
▁Floyd	-11.3884
▁boom	-11.3887
fest	-11.3888
▁postpon	-11.3888
▁hamlet	-11.3891
▁Meyer	-11.3893
▁sortie	-11.3893
▁reinforce	-11.3894
▁woodland	-11.3897
▁lesser	-11.3897
▁modest	-11.3898
▁Culture	-11.3898
slav	-11.39
▁Ny	-11.3903
mul	-11.3905
▁Wellington	-11.3905
▁Why	-11.3909
▁possessed	-11.391
▁instructions	-11.3911
leg	-11.3913
▁750	-11.3916
▁subtropic	-11.3917
▁165	-11.3918
▁Beij	-11.3921
▁golf	-11.3922
gil	-11.3923
▁Headquarters	-11.3926
▁enlarg	-11.3926
▁Cloud	-11.3929
▁XI	-11.3931
▁Palestin	-11.3932
graph	-11.3932
▁authentic	-11.3934
▁corruption	-11.3936
▁populat	-11.3937
▁Mail	-11.3939
▁Viet	-11.394
how	-11.3941
▁phenomenon	-11.3941
ware	-11.3941
▁AS	-11.3945
kill	-11.3947
▁Crawford	-11.3948
▁Solomon	-11.3948
▁Rem	-11.3952
apolis	-11.3955
▁Aaron	-11.3955
▁Venic	-11.3956
▁hung	-11.3957
53	-11.3957
▁frontier	-11.3958
▁Hum	-11.3959
▁philosopher	-11.3962
▁fake	-11.3963
▁Cinema	-11.3964
▁seeming	-11.3969
▁Using	-11.3969
▁fix	-11.3969
▁Episode	-11.3969
▁Flanders	-11.3969
▁consent	-11.397
▁135	-11.397
▁lifestyle	-11.3971
▁pot	-11.3974
▁Site	-11.3976
▁Telegraph	-11.3977
▁throat	-11.3977
▁colored	-11.3977
ín	-11.3978
54	-11.3978
▁Java	-11.3979
▁replica	-11.398
▁genres	-11.3983
num	-11.3983
vent	-11.3983
▁etc	-11.3984
ido	-11.3985
ophil	-11.3988
▁surprising	-11.3991
▁Yama	-11.3993
▁eighteen	-11.3994
▁Jet	-11.3994
▁Punk	-11.3995
▁championships	-11.3995
▁dimensional	-11.3996
▁provok	-11.3998
▁kitchen	-11.3998
pla	-11.3999
▁Food	-11.4003
▁Guadal	-11.4005
▁Fischer	-11.4005
▁silk	-11.4006
▁Tucker	-11.4006
▁Watson	-11.4007
▁disco	-11.4008
▁reache	-11.401
▁poverty	-11.4013
▁ambition	-11.4013
▁1873	-11.4016
▁awareness	-11.4016
▁Truman	-11.4017
▁innovation	-11.402
▁Chile	-11.4022
▁Temp	-11.4025
▁1882	-11.4027
▁Heavy	-11.4027
ame	-11.4028
verse	-11.403
▁Jen	-11.4033
▁Members	-11.4034
▁Member	-11.4035
▁arcade	-11.4036
▁rehearsal	-11.4037
▁Lau	-11.404
▁Effect	-11.4042
▁SA	-11.4042
nna	-11.4043
▁clouds	-11.4045
▁mbar	-11.4047
law	-11.4047
▁ensemble	-11.4049
▁variant	-11.405
pra	-11.4052
▁Panama	-11.4053
named	-11.4056
▁1871	-11.4061
▁Caesar	-11.4063
▁achievements	-11.4065
▁Travel	-11.4067
active	-11.4069
▁preach	-11.407
▁Quest	-11.407
▁Paralympic	-11.4071
▁Adrian	-11.4071
▁controller	-11.4075
▁1867	-11.4075
▁Sai	-11.4076
▁Jun	-11.4077
▁Monument	-11.4078
▁molecular	-11.4078
▁poison	-11.4078
▁pleasure	-11.4079
▁button	-11.4081
▁Brod	-11.4088
CT	-11.409
▁shopp	-11.4091
▁Kepler	-11.4092
▁overcome	-11.41
▁conducting	-11.4101
▁McCarthy	-11.4107
▁percussion	-11.4107
quest	-11.4107
▁listening	-11.4108
▁Clement	-11.411
hurst	-11.4111
▁acceptance	-11.4111
▁tactical	-11.4111
▁input	-11.4114
ographic	-11.4115
▁fus	-11.4116
▁Mongol	-11.4119
hem	-11.4121
▁Bengal	-11.4122
▁icon	-11.4123
▁Rec	-11.4126
▁dialect	-11.4129
▁Prison	-11.4132
▁theaters	-11.4132
▁surpassed	-11.4134
▁clash	-11.4135
▁fierce	-11.4136
▁reopen	-11.4136
▁mechanics	-11.4141
▁Dudley	-11.4144
▁erupt	-11.4147
▁regiments	-11.4147
▁Belle	-11.4148
ES	-11.415
▁elephant	-11.4151
▁Norse	-11.4151
▁Waters	-11.4153
▁Mai	-11.4155
▁marsh	-11.4156
▁overwhelming	-11.4156
▁relay	-11.4157
▁Mart	-11.4158
▁genera	-11.416
▁peasant	-11.4165
▁Deputy	-11.4165
▁unanimous	-11.4165
▁tributar	-11.4166
▁1878	-11.417
▁worker	-11.417
▁Geoffr	-11.417
▁revealing	-11.4171
▁Author	-11.4171
▁Gibson	-11.4173
▁divine	-11.4173
▁Wol	-11.4174
▁z	-11.4176
▁pocket	-11.418
▁Heaven	-11.418
▁fitting	-11.4181
▁Movement	-11.4181
▁realm	-11.4182
itude	-11.4184
▁comprised	-11.4187
▁syndrome	-11.4188
▁thorough	-11.4188
hra	-11.4196
▁arguments	-11.4197
▁excavation	-11.4198
▁oak	-11.4198
▁graphic	-11.4199
▁Commercial	-11.4202
piece	-11.4205
▁Luftwaffe	-11.421
▁ironclad	-11.421
vol	-11.4215
iri	-11.4216
sbury	-11.4216
▁Sau	-11.4217
▁Damage	-11.422
▁iTune	-11.4224
▁nerve	-11.4225
▁Reed	-11.4225
iro	-11.423
▁Trinity	-11.4232
▁cry	-11.4234
▁Sue	-11.4239
▁fu	-11.4241
hole	-11.4246
▁sic	-11.4246
▁privilege	-11.4246
▁performers	-11.4248
umi	-11.4249
▁boot	-11.4251
▁headline	-11.4252
▁Hawaiian	-11.4253
▁Palm	-11.4253
▁Stre	-11.4253
▁Burger	-11.4257
▁Isles	-11.4258
apa	-11.4259
▁Region	-11.426
▁Newman	-11.4261
▁Ang	-11.4263
acy	-11.4263
▁bowled	-11.4264
tech	-11.4265
type	-11.4266
▁pig	-11.4269
▁Mobile	-11.4269
tory	-11.4269
▁Dev	-11.4272
▁Fle	-11.4273
path	-11.4273
▁Expedition	-11.4276
▁Adult	-11.4276
▁winners	-11.4278
▁bin	-11.4279
▁Chase	-11.4282
▁Choice	-11.4284
▁legitimate	-11.4284
▁Liber	-11.4286
▁feminist	-11.4291
▁cheer	-11.4292
▁Leader	-11.4293
▁shoe	-11.4303
urged	-11.4304
▁depress	-11.4305
▁underwater	-11.4309
▁missile	-11.4309
▁Metacritic	-11.4313
▁statute	-11.4313
▁Combat	-11.4315
ET	-11.4317
▁Bermuda	-11.4328
▁lesbian	-11.4328
▁qualification	-11.4328
▁Logan	-11.4333
▁Mick	-11.4336
lip	-11.4336
iva	-11.4337
igh	-11.4339
aver	-11.434
▁pinn	-11.4341
▁plantation	-11.4342
▁raw	-11.4343
eli	-11.4344
▁transmitt	-11.4346
▁Gli	-11.435
▁consensus	-11.4351
like	-11.4355
42	-11.4362
lov	-11.4363
▁qualities	-11.4366
▁Monroe	-11.4366
▁synthesis	-11.4366
▁Shelley	-11.4366
▁Notable	-11.4372
▁intact	-11.4374
nen	-11.4375
▁loyalty	-11.4375
▁Right	-11.4377
▁manual	-11.4377
▁caution	-11.438
▁coalition	-11.4381
▁perception	-11.4383
ural	-11.4385
vit	-11.4386
bach	-11.4386
▁declar	-11.4388
▁Genesis	-11.4389
▁Marcus	-11.4389
▁Lat	-11.4391
▁Raven	-11.4393
▁Spencer	-11.4395
▁adequate	-11.4395
▁centered	-11.4396
ibility	-11.4397
▁Manager	-11.4397
000	-11.44
itu	-11.4401
▁immigrants	-11.4402
BC	-11.441
▁155	-11.4411
▁Mov	-11.4413
▁duck	-11.4416
▁conductor	-11.4417
▁Chandler	-11.4418
▁Various	-11.4419
▁Colt	-11.442
▁mint	-11.4421
▁RPG	-11.4426
wind	-11.4426
▁1872	-11.4427
▁1868	-11.4429
▁Price	-11.4432
▁Aguilera	-11.4433
▁neverthe	-11.4435
▁shin	-11.4436
▁dragon	-11.4438
▁desperate	-11.4438
▁knowing	-11.4438
▁spare	-11.4441
▁caliber	-11.4441
▁captive	-11.4441
face	-11.4443
olog	-11.4444
▁Vic	-11.4446
▁pregnanc	-11.4448
▁Selena	-11.4449
▁weld	-11.4449
▁rein	-11.4455
▁propeller	-11.4456
pod	-11.4458
▁volcano	-11.446
▁locomotive	-11.4463
▁telescope	-11.4463
▁whales	-11.4465
fold	-11.4467
▁peaceful	-11.4467
▁elde	-11.4468
▁astronomer	-11.4471
▁Christians	-11.4474
ache	-11.4474
▁Volt	-11.4474
▁Money	-11.4476
▁directing	-11.4477
zar	-11.4478
▁greet	-11.4478
▁twentieth	-11.448
▁detective	-11.4481
▁Wings	-11.4483
shaw	-11.4484
▁insufficient	-11.4486
▁trademark	-11.4487
▁organize	-11.4492
▁Cabinet	-11.4494
▁Poll	-11.4495
▁songwriting	-11.4496
▁ants	-11.4497
▁instrumentation	-11.4498
▁mac	-11.4498
dell	-11.4499
▁confrontation	-11.4501
▁Springs	-11.4501
▁frog	-11.4502
drawn	-11.4505
▁batsman	-11.4505
pul	-11.4506
GA	-11.4507
lian	-11.4507
▁engaging	-11.4509
▁MVP	-11.4509
▁Generation	-11.4509
91	-11.4509
▁Flames	-11.451
▁Note	-11.451
▁complaints	-11.451
▁cabin	-11.451
▁Marty	-11.451
▁renovation	-11.4511
▁objection	-11.4515
own	-11.4515
▁Any	-11.4516
boat	-11.4516
▁Mé	-11.4518
ception	-11.4518
▁divert	-11.4523
▁Mull	-11.4523
▁analyz	-11.4524
▁maneuver	-11.4525
▁motivat	-11.4527
▁Newport	-11.4528
▁terror	-11.4528
omb	-11.4528
▁Engineering	-11.453
▁Glass	-11.4531
▁preliminar	-11.4531
▁internationally	-11.4538
▁Griffin	-11.4539
▁Destin	-11.4541
▁rally	-11.4543
▁kidnapp	-11.4543
▁Mills	-11.4544
▁situations	-11.4545
▁bacteria	-11.4546
nel	-11.4546
▁Renaissance	-11.4547
▁Riley	-11.4548
▁Barrett	-11.4549
▁Lyn	-11.455
duction	-11.455
▁Tiger	-11.455
wn	-11.4552
▁AP	-11.4553
▁Parachute	-11.4554
atsu	-11.4555
▁fragments	-11.4557
▁spectators	-11.456
▁stance	-11.4562
▁judgment	-11.4563
quer	-11.4563
▁Crow	-11.4569
▁Adelaide	-11.457
horn	-11.4575
DS	-11.4576
▁Cli	-11.4576
▁roller	-11.4576
▁Pha	-11.4578
▁revision	-11.4578
▁Vince	-11.4582
▁spots	-11.4585
▁WWF	-11.4586
▁notic	-11.4587
▁commissioner	-11.4589
▁meal	-11.4591
▁syn	-11.4591
▁Ark	-11.4592
▁reminiscent	-11.4593
▁joy	-11.4594
part	-11.4598
▁Reading	-11.4601
▁preference	-11.4601
▁appreciat	-11.4603
▁weighed	-11.4604
▁Surrey	-11.4608
▁motorway	-11.461
▁Regard	-11.4611
▁tap	-11.4612
erson	-11.4614
▁neutron	-11.4616
▁interference	-11.4616
▁Maxwell	-11.4617
▁rope	-11.4618
▁realis	-11.462
AL	-11.4622
▁derive	-11.4624
▁attractive	-11.4625
▁priorit	-11.4628
▁loaded	-11.4628
▁homeless	-11.4629
▁extraordinar	-11.4631
▁View	-11.4633
iko	-11.4635
▁texture	-11.4637
▁Commons	-11.4638
▁objectives	-11.4646
▁gallery	-11.4646
▁solve	-11.4646
▁depot	-11.4651
▁laud	-11.4652
▁dealt	-11.4653
▁Chancellor	-11.4654
▁attachment	-11.4655
▁Legion	-11.4658
▁alarm	-11.4662
▁Pol	-11.4666
▁Esc	-11.4667
▁ministers	-11.4668
▁Abraham	-11.4669
▁Essex	-11.4669
▁passion	-11.467
▁Skinner	-11.467
▁Revolutionar	-11.4672
▁den	-11.4674
▁Sciences	-11.4677
▁quantiti	-11.4677
▁Plymouth	-11.4677
rigg	-11.4677
▁auction	-11.4677
linger	-11.4678
▁thickness	-11.4678
▁layout	-11.4679
▁Sharp	-11.468
▁wishes	-11.4684
▁unaware	-11.4685
▁lemurs	-11.4686
▁manipulat	-11.4688
▁utiliz	-11.469
▁warrant	-11.469
▁mathematics	-11.4693
▁Madrid	-11.4694
▁blade	-11.4694
▁civilization	-11.4695
gni	-11.4695
▁consequences	-11.4699
▁Baldwin	-11.47
▁Banksia	-11.47
▁Foot	-11.4702
▁Page	-11.4706
▁Brigadier	-11.4708
▁Tunnel	-11.4709
▁Rom	-11.471
▁decid	-11.4711
▁subtle	-11.4711
▁mu	-11.4713
iform	-11.4715
▁conceal	-11.4716
▁locate	-11.4716
▁Hancock	-11.4716
▁Doug	-11.4717
▁parade	-11.4718
▁Lone	-11.4718
▁reactor	-11.4723
▁runway	-11.4724
▁SH	-11.4725
▁Preston	-11.4726
▁clay	-11.4727
IC	-11.4728
▁neglect	-11.4731
▁enclos	-11.4732
cz	-11.4733
▁machinery	-11.4733
▁Edgar	-11.4734
▁hydro	-11.4739
▁Vienna	-11.4739
▁Lancaster	-11.4739
lett	-11.474
▁baron	-11.474
etti	-11.4741
▁Tha	-11.4746
▁machines	-11.4747
▁solv	-11.4749
rov	-11.4751
▁interception	-11.4751
ova	-11.4752
▁instruction	-11.4754
▁Ari	-11.4754
▁citizen	-11.4755
▁Pad	-11.4762
azi	-11.4763
▁configuration	-11.4763
▁Coach	-11.4763
▁Stoke	-11.4768
pet	-11.477
phe	-11.4771
▁quote	-11.4771
held	-11.4773
▁Harper	-11.4774
▁Florence	-11.4779
▁Hale	-11.4781
lly	-11.4785
▁subordinate	-11.4786
▁nominee	-11.4786
bone	-11.4788
▁106	-11.4789
▁lip	-11.479
▁redesign	-11.4793
▁proximit	-11.4794
▁Flood	-11.4794
▁progression	-11.4796
▁Sig	-11.4798
▁Aviation	-11.4799
▁Admiralty	-11.4801
▁Len	-11.4801
▁detonat	-11.4803
▁receiver	-11.4808
▁rookie	-11.4809
▁custody	-11.4817
▁Ky	-11.4818
▁announc	-11.4823
▁Zoo	-11.4823
▁Helm	-11.4824
▁Senior	-11.4825
▁Twenty	-11.4825
▁grandson	-11.483
▁Shan	-11.483
▁topic	-11.4831
▁Nobel	-11.4831
▁pronounced	-11.4833
▁Cuban	-11.4836
bur	-11.4839
▁discharge	-11.4841
▁Usher	-11.4841
▁Pul	-11.4842
▁southward	-11.4843
▁currency	-11.4846
▁lu	-11.4847
▁merger	-11.4848
▁Jennifer	-11.4848
▁Jeremy	-11.4848
▁incomplete	-11.4848
▁suburb	-11.4849
arrow	-11.4855
▁fatalit	-11.4855
▁Phillips	-11.4856
▁Publishing	-11.4859
▁platoon	-11.4864
▁accommodation	-11.4865
rine	-11.4866
▁Task	-11.4869
▁Arkansas	-11.4872
IA	-11.4872
game	-11.4874
▁113	-11.4875
▁Andre	-11.4875
▁Disc	-11.4877
▁welcome	-11.4879
▁Ltd	-11.4881
mura	-11.4884
▁editorial	-11.4884
▁Andrea	-11.4886
▁Circuit	-11.4888
▁Hergé	-11.4888
▁memories	-11.4888
▁intercept	-11.4888
▁keen	-11.4888
▁funk	-11.4891
▁seeds	-11.4892
▁AA	-11.4894
▁Rocket	-11.4895
▁cro	-11.4897
▁Kerr	-11.4899
▁Romania	-11.4902
▁commemorate	-11.4903
gno	-11.4903
▁cream	-11.4904
▁Apart	-11.4905
▁Mk	-11.4907
zel	-11.4907
▁merit	-11.4909
▁1879	-11.4909
▁correspond	-11.491
kle	-11.4911
▁obstacle	-11.4911
▁Rail	-11.4914
▁McCain	-11.4915
▁Stories	-11.4915
▁atmospheric	-11.4919
▁Contemporar	-11.492
▁soap	-11.492
▁reef	-11.4921
▁rings	-11.4921
bil	-11.4921
▁pond	-11.4925
▁interactions	-11.4926
▁dislik	-11.4926
▁processing	-11.4929
▁Rule	-11.4931
▁Fil	-11.4934
▁McDonald	-11.4935
▁Capitol	-11.4935
▁dawn	-11.4935
▁Ober	-11.4937
▁Drama	-11.4938
lag	-11.4942
▁Allmusic	-11.4943
▁regardless	-11.4943
▁Monday	-11.4944
▁engrav	-11.4945
lé	-11.4951
cept	-11.4952
▁batter	-11.4953
▁min	-11.4957
▁Have	-11.4959
▁Industrial	-11.4959
jun	-11.496
rog	-11.496
▁proud	-11.4962
gun	-11.4963
▁comparable	-11.4964
▁sediment	-11.4967
▁Flor	-11.4967
▁smart	-11.4967
NT	-11.4967
▁molecules	-11.4968
▁drill	-11.4969
▁Caroline	-11.4969
▁nineteenth	-11.4973
▁Bowie	-11.4974
▁Minogue	-11.4975
▁Mirror	-11.4975
▁northwestern	-11.4975
▁Santo	-11.4981
▁Double	-11.4983
▁Plaza	-11.4984
▁sustain	-11.4984
▁utilit	-11.4984
EF	-11.4985
rup	-11.4987
▁Perth	-11.499
▁Orthodox	-11.4991
▁Sierra	-11.4991
▁array	-11.4991
▁scorer	-11.4991
▁synth	-11.4995
▁Edmonton	-11.4999
▁glu	-11.5
chel	-11.5
▁Mul	-11.5001
▁Lithuanian	-11.5002
▁JG	-11.5002
▁Tales	-11.5006
▁tourism	-11.5009
court	-11.5009
▁lyric	-11.5012
▁Continu	-11.5015
▁Intelligence	-11.5015
▁prosecution	-11.5017
▁spann	-11.5017
▁Kel	-11.5021
▁Motion	-11.5022
▁Beautiful	-11.5023
▁Newfoundland	-11.5023
▁thrust	-11.5023
▁deny	-11.5024
▁Tab	-11.5025
NA	-11.5027
lim	-11.5028
▁Pale	-11.5029
▁Manning	-11.5029
▁admission	-11.5031
▁Found	-11.5032
▁punish	-11.5038
▁muzzle	-11.5039
▁psycho	-11.5039
▁northwestward	-11.5041
oga	-11.5041
▁Merc	-11.5041
▁patch	-11.5042
▁Lynch	-11.5043
▁Palmer	-11.5043
▁discontinued	-11.5045
▁Cul	-11.5051
rob	-11.5053
bot	-11.5062
▁commit	-11.5062
▁besieg	-11.5063
pid	-11.5064
▁steady	-11.5064
▁photographer	-11.5068
▁slip	-11.507
▁Janet	-11.5074
▁ambitious	-11.5079
▁gravity	-11.5079
▁Arabian	-11.5084
vic	-11.5086
▁Consequent	-11.5087
▁Nothing	-11.5089
phan	-11.5092
▁recount	-11.5095
▁happi	-11.5095
▁cooperation	-11.5097
▁cal	-11.5098
tone	-11.51
▁Vita	-11.5102
▁theoretical	-11.5103
▁Tai	-11.5103
▁examine	-11.5105
▁simulat	-11.5107
▁270	-11.5108
▁guards	-11.5109
té	-11.5113
▁duet	-11.5117
▁Tara	-11.5124
▁barely	-11.5125
▁conjunction	-11.5127
▁necessari	-11.5127
▁Toy	-11.5127
▁Wake	-11.5128
▁Edwin	-11.5128
▁Spartan	-11.5128
▁concentrate	-11.5129
▁latitude	-11.5135
▁memorabl	-11.5136
▁Protection	-11.5137
▁employer	-11.5139
credible	-11.5143
▁Operations	-11.5145
▁Sei	-11.5146
▁hind	-11.5146
ometric	-11.5146
▁arise	-11.5147
▁Messi	-11.515
plane	-11.515
▁captivity	-11.5151
▁ornament	-11.5151
▁teachers	-11.5152
▁busy	-11.5153
▁barr	-11.5154
▁152	-11.5158
wive	-11.5159
IT	-11.5159
▁mall	-11.5162
▁Direct	-11.5163
▁Armenia	-11.5163
MS	-11.5166
hana	-11.517
▁reconstruct	-11.5171
▁Data	-11.5172
▁barb	-11.5174
▁Stop	-11.5179
OL	-11.5179
▁108	-11.518
core	-11.5182
ée	-11.5184
alis	-11.5187
▁Cong	-11.5189
▁partners	-11.519
▁clerk	-11.5192
▁wonderful	-11.5193
lton	-11.5195
beat	-11.5196
press	-11.5197
▁Rei	-11.5198
▁intern	-11.52
OS	-11.5201
▁editing	-11.5203
▁Tele	-11.5206
▁ibn	-11.5209
▁Rhine	-11.5211
▁Fal	-11.5212
▁Exc	-11.5213
▁extinction	-11.5214
duc	-11.5215
▁Cab	-11.5216
▁Calvin	-11.5218
uti	-11.5219
▁Lim	-11.522
▁terrorist	-11.522
▁magical	-11.5221
clo	-11.5222
ör	-11.5224
▁Survey	-11.5224
▁eject	-11.5224
▁Chang	-11.5227
▁chess	-11.5231
▁Clay	-11.5232
▁membrane	-11.5233
▁Nashville	-11.5234
▁hom	-11.5234
74	-11.5237
gard	-11.5238
▁112	-11.524
▁certification	-11.5242
▁strings	-11.5247
51	-11.5249
▁rulers	-11.5251
▁Luis	-11.5252
rapy	-11.5254
▁gambl	-11.5255
▁transformation	-11.5258
▁Spy	-11.526
▁Busch	-11.5265
▁Bak	-11.5265
▁Jin	-11.5266
▁Turks	-11.5267
▁Panther	-11.5268
▁u	-11.5273
▁chronicle	-11.5273
▁tro	-11.5274
▁trophy	-11.5274
▁copyright	-11.5274
▁deeper	-11.5276
▁sporting	-11.5277
▁FM	-11.5278
▁Mak	-11.5279
▁Select	-11.5279
▁AllMusic	-11.5282
▁disappointment	-11.5282
▁Crew	-11.5282
EA	-11.5283
wing	-11.5283
rill	-11.5286
▁Terra	-11.5291
udi	-11.5291
▁Leg	-11.5293
▁Chairman	-11.5295
imi	-11.5297
▁anonymous	-11.5298
▁delet	-11.5299
▁Block	-11.5301
▁dug	-11.5305
▁refit	-11.5305
▁rumour	-11.5306
▁retire	-11.531
▁Kit	-11.5312
▁Kun	-11.5313
▁Neu	-11.5314
▁conven	-11.5317
utter	-11.5322
▁Maurice	-11.5323
▁Junction	-11.5323
▁Online	-11.5325
thrown	-11.5326
▁lab	-11.5328
▁Rhodesia	-11.5331
▁pyramid	-11.5331
▁jumping	-11.5331
▁Mana	-11.5336
berry	-11.5339
wine	-11.5339
▁weigh	-11.5339
▁Paramount	-11.5339
▁Alamo	-11.534
▁resume	-11.5342
▁Arch	-11.5342
▁Emily	-11.5342
▁Peak	-11.5343
▁dia	-11.5343
▁Corner	-11.5345
thi	-11.5345
▁tow	-11.5345
▁erosion	-11.5347
▁violin	-11.5347
col	-11.5348
ift	-11.5348
evolutionary	-11.5349
▁Louise	-11.5355
▁Hanna	-11.5356
▁nu	-11.5359
▁riff	-11.5366
▁Haiti	-11.5368
▁devastat	-11.5369
▁clause	-11.5372
▁Hank	-11.5372
▁shrine	-11.5373
▁Arctic	-11.5374
▁Garfield	-11.5376
▁concession	-11.5381
▁Knights	-11.5384
▁Yet	-11.5387
▁nickel	-11.5389
pl	-11.5389
▁backup	-11.5392
▁honors	-11.5392
▁thriller	-11.5393
▁Crane	-11.5394
▁Holly	-11.5394
▁neo	-11.5394
nut	-11.5395
▁Guatemala	-11.5397
▁Tasmania	-11.5397
▁distract	-11.5401
▁1848	-11.5402
▁Formula	-11.5403
▁intensify	-11.5405
▁speaker	-11.5406
▁demanding	-11.5408
▁AL	-11.5409
▁210	-11.541
▁panels	-11.5412
▁ty	-11.5413
▁Masters	-11.5413
OC	-11.5414
▁secular	-11.5414
▁equation	-11.5415
▁spec	-11.5418
▁Moor	-11.5419
ár	-11.542
▁Global	-11.5422
▁Christianit	-11.5423
▁bas	-11.5424
▁Bod	-11.5425
▁1874	-11.5426
corn	-11.5428
▁Evan	-11.5429
▁vein	-11.543
▁metropolitan	-11.543
▁decree	-11.543
▁focuse	-11.5431
▁silence	-11.5432
rrh	-11.5432
▁align	-11.5432
▁Alien	-11.5439
▁shout	-11.5442
▁Pierce	-11.5442
▁gland	-11.5443
▁Kiss	-11.5443
▁rape	-11.5444
▁Nord	-11.5446
▁Look	-11.5446
▁neuro	-11.5446
▁plastic	-11.5447
▁chapters	-11.5449
ucci	-11.5454
▁unhapp	-11.5455
lop	-11.5457
▁Laura	-11.5458
▁compare	-11.546
▁Era	-11.5463
▁colonel	-11.5464
▁Windsor	-11.5464
▁Honour	-11.5464
▁Imp	-11.5466
cott	-11.5468
▁Irving	-11.5468
▁145	-11.547
▁Nicola	-11.5472
▁Paper	-11.5474
▁tennis	-11.5476
cate	-11.5476
▁Holmes	-11.5479
▁reservoir	-11.548
▁Hopkins	-11.548
▁drag	-11.5482
▁Randy	-11.5484
raz	-11.5485
▁blog	-11.5486
amba	-11.5486
▁Axi	-11.5488
▁undergraduate	-11.5489
▁masse	-11.549
▁fox	-11.549
IAA	-11.5492
▁Gau	-11.5492
▁Hour	-11.5494
ici	-11.5495
73	-11.5496
▁mourn	-11.5497
▁reserved	-11.5498
▁interval	-11.5499
▁reserves	-11.5503
▁affirm	-11.5506
▁lobby	-11.5506
▁hiding	-11.5506
rain	-11.5507
▁Martha	-11.5507
lik	-11.5507
▁hire	-11.5508
▁Michelle	-11.5511
hang	-11.5513
▁specifi	-11.5515
▁Cow	-11.5516
▁Sz	-11.5516
▁tile	-11.5518
▁plutoni	-11.5522
▁Face	-11.5522
nick	-11.5522
▁Manor	-11.5524
▁Erik	-11.5525
tori	-11.5525
iter	-11.5527
tak	-11.553
▁Reform	-11.553
▁worried	-11.553
▁SpongeBob	-11.5531
▁tongue	-11.5532
▁bon	-11.5532
uro	-11.5532
▁identification	-11.5532
▁discussions	-11.5533
▁crowned	-11.5533
lom	-11.5536
▁groove	-11.5539
▁diving	-11.5539
▁Lindwall	-11.5539
▁loading	-11.5541
▁Bul	-11.5542
▁detached	-11.5542
tim	-11.5546
▁Partisan	-11.5548
▁disagreement	-11.555
▁evacuate	-11.555
▁Fac	-11.5552
▁item	-11.5552
▁compact	-11.5556
▁torture	-11.5557
▁meta	-11.5559
▁lakes	-11.5562
▁Bomb	-11.5562
▁pad	-11.5563
▁Argentine	-11.5565
▁Patriot	-11.5565
▁Basin	-11.5566
▁affiliate	-11.5569
▁Sister	-11.557
ograph	-11.5572
▁mob	-11.5575
▁Dodger	-11.5575
▁unlock	-11.5577
hoe	-11.5578
▁pledg	-11.5578
93	-11.5579
▁vampire	-11.5581
▁Did	-11.5582
▁cord	-11.5584
▁Arabic	-11.5586
▁Wen	-11.5587
hara	-11.5589
▁Comb	-11.5589
▁investor	-11.559
▁Turnpike	-11.559
▁uncover	-11.5592
walk	-11.5592
gie	-11.5593
▁teenage	-11.5593
▁pose	-11.5593
▁lone	-11.5594
▁tasks	-11.5594
▁Sco	-11.5595
▁Strike	-11.5595
▁oxide	-11.5597
▁counterattack	-11.5598
▁Snake	-11.5598
▁Gerald	-11.5598
▁luck	-11.56
▁Claire	-11.5603
▁contestant	-11.5605
▁Berkeley	-11.5607
▁puppet	-11.5607
▁fixture	-11.5607
▁Stanford	-11.5608
vir	-11.5613
▁geographical	-11.5614
▁Rifle	-11.5615
▁garage	-11.5616
▁Iceland	-11.5624
ody	-11.5625
▁Inde	-11.5625
▁Presley	-11.5625
▁Rhodesian	-11.5626
▁instructor	-11.5627
▁Rhode	-11.5629
▁Tsu	-11.563
▁restrict	-11.5631
▁hectare	-11.5632
▁Spa	-11.5632
▁feat	-11.5633
▁Observer	-11.5641
▁internet	-11.5644
▁funnel	-11.5644
yama	-11.5645
▁Bulgaria	-11.5645
▁Superman	-11.5646
▁Stefani	-11.5647
▁fusion	-11.5647
▁Nichols	-11.5649
▁fascinat	-11.5649
▁Pick	-11.5651
oda	-11.5653
▁haul	-11.5655
▁Willis	-11.5656
▁diagnosed	-11.5656
▁electoral	-11.5658
▁seize	-11.5658
▁Vocal	-11.5658
canal	-11.5659
▁cow	-11.5659
née	-11.5661
▁manor	-11.5661
▁131	-11.5663
▁Adventures	-11.5664
pat	-11.5668
bell	-11.5669
▁pub	-11.5669
▁Marco	-11.5672
▁Hon	-11.5674
▁Viv	-11.5674
▁Soundtrack	-11.5675
▁reflection	-11.5675
▁bread	-11.5676
mine	-11.5677
rak	-11.5679
▁Lie	-11.5682
▁bedroom	-11.5683
▁naked	-11.5683
SR	-11.5684
▁Julie	-11.5685
▁plead	-11.5686
NG	-11.5687
▁Phi	-11.5687
▁holder	-11.569
▁Made	-11.5691
▁Quarter	-11.5692
kha	-11.5692
ket	-11.5692
▁treasure	-11.5692
▁pirate	-11.5692
▁Glenn	-11.5693
▁Lac	-11.5694
▁integr	-11.5695
▁luxur	-11.57
▁comprehensive	-11.57
▁monkey	-11.5701
gro	-11.5704
▁bro	-11.5705
▁Jennings	-11.5709
▁Recreation	-11.5709
▁lodge	-11.571
▁Add	-11.5711
▁Hold	-11.5711
▁lineup	-11.5714
vat	-11.5715
▁ash	-11.5715
▁glacier	-11.5717
▁Nad	-11.5718
▁Neo	-11.5718
▁Nik	-11.5719
beit	-11.5719
kon	-11.5719
▁Eva	-11.5719
▁Warwick	-11.5728
posed	-11.5731
▁Beside	-11.5734
boro	-11.5734
▁maker	-11.5737
63	-11.5739
▁jokes	-11.5741
▁propose	-11.5742
▁centimetre	-11.5743
eman	-11.5744
▁Wool	-11.5744
▁Bud	-11.5745
▁Chapman	-11.5745
▁Case	-11.5747
▁1851	-11.5748
▁Castro	-11.5748
▁waterline	-11.5751
▁Living	-11.5751
▁await	-11.5752
▁Delhi	-11.5753
▁coloured	-11.5754
▁Booth	-11.5754
▁Hai	-11.5755
▁Word	-11.5755
▁280	-11.576
▁Shore	-11.5761
▁Broadcasting	-11.5766
▁NL	-11.5767
▁lunch	-11.577
▁disk	-11.5771
▁Outside	-11.5774
▁Singer	-11.5777
▁landings	-11.5777
▁unofficial	-11.5778
▁Scholar	-11.5778
hab	-11.5783
▁outline	-11.5784
▁Berry	-11.5786
▁bush	-11.5787
▁activat	-11.5789
▁insect	-11.5791
▁Brun	-11.5793
▁mus	-11.5793
▁accent	-11.5795
▁Alternative	-11.5795
▁turtle	-11.5795
▁Pho	-11.5797
▁Corn	-11.5797
▁Parr	-11.5799
▁darkness	-11.58
▁Sad	-11.5801
▁Nathan	-11.5802
▁Bueno	-11.5804
sworth	-11.5807
▁Costa	-11.5807
▁Gone	-11.5808
▁Gaza	-11.5808
▁Southampton	-11.5812
▁Universe	-11.5812
▁mathematical	-11.5812
bru	-11.5812
▁sacred	-11.5812
▁André	-11.5814
▁mod	-11.5817
por	-11.5818
▁103	-11.5819
▁Borough	-11.5822
gl	-11.5822
▁Pilot	-11.5823
▁Hayes	-11.5825
▁Cave	-11.5826
▁Comic	-11.5826
▁amazing	-11.5829
GS	-11.5829
▁Spielberg	-11.5829
▁Jeffrey	-11.5829
▁cadet	-11.583
▁compensation	-11.583
cie	-11.5832
▁Ah	-11.5833
▁experts	-11.5837
▁Fletcher	-11.5838
▁tar	-11.5841
▁Venus	-11.5848
▁toxic	-11.5848
▁midnight	-11.5849
▁Dominican	-11.5849
▁Whig	-11.5852
lash	-11.5853
▁EU	-11.5855
▁escalat	-11.5855
▁foul	-11.5855
▁Prussian	-11.5858
▁Annie	-11.586
▁courage	-11.5864
eff	-11.5866
▁affection	-11.5867
▁upward	-11.5869
▁Bolton	-11.5872
▁sack	-11.5872
▁casual	-11.5873
rib	-11.5873
▁Lightning	-11.5873
▁wagon	-11.5873
▁intersections	-11.5874
unda	-11.5875
writer	-11.5876
NS	-11.5877
zh	-11.5881
▁Krishna	-11.5881
▁qui	-11.5883
▁drainage	-11.5883
▁comet	-11.5884
asi	-11.5885
▁freight	-11.5888
▁genes	-11.5888
▁Ut	-11.5891
mph	-11.5892
▁Kol	-11.5892
▁Kenny	-11.5893
▁Jesse	-11.5897
▁Brandon	-11.5899
▁Rugby	-11.5899
▁coffee	-11.5899
▁Bau	-11.59
▁Mit	-11.5903
▁Johann	-11.5907
loo	-11.5907
raw	-11.5908
▁denounc	-11.5908
▁eleventh	-11.5908
▁Coll	-11.5915
▁Patton	-11.5917
▁choos	-11.5917
▁collid	-11.5917
▁shops	-11.5917
▁swamp	-11.592
▁Artillery	-11.5925
▁Eisenhower	-11.5925
▁Ferrari	-11.5925
omi	-11.5926
▁backward	-11.5927
▁Hin	-11.5929
▁Wat	-11.5929
▁mistaken	-11.5931
inae	-11.5932
▁lemur	-11.5932
▁expell	-11.5934
cock	-11.5935
trop	-11.5937
▁diary	-11.5938
▁corpse	-11.5938
lund	-11.5939
▁Truth	-11.5939
mani	-11.5942
▁Retriev	-11.5943
▁Pirates	-11.5943
▁mosque	-11.5943
▁Less	-11.5945
FR	-11.5947
▁entertaining	-11.595
▁dorsal	-11.5951
▁crater	-11.5952
▁Yard	-11.5952
▁bassist	-11.5953
▁contender	-11.5954
▁Senators	-11.5957
▁Porter	-11.5958
▁sophisticat	-11.596
▁bounc	-11.596
▁trustee	-11.5964
▁Brave	-11.5967
▁Sul	-11.5968
▁Raja	-11.5969
▁leather	-11.5969
▁NOK	-11.5969
▁gig	-11.5972
▁predator	-11.5974
▁refuge	-11.598
▁placement	-11.5981
▁reprint	-11.5982
vik	-11.5983
▁unpopular	-11.5987
▁rub	-11.5988
▁symbolic	-11.5989
▁teen	-11.5995
▁Hendrix	-11.5995
ih	-11.5997
▁370	-11.6002
nthology	-11.6002
▁Syrian	-11.6003
▁woods	-11.6003
▁Sometime	-11.6006
▁contend	-11.6006
▁contributor	-11.601
▁promising	-11.601
together	-11.6011
▁hum	-11.6012
▁convincing	-11.6013
▁117	-11.6015
▁monks	-11.6019
▁hanging	-11.6019
▁Distinguish	-11.6022
▁Rare	-11.6023
▁Grim	-11.6023
▁exciting	-11.6023
▁conn	-11.6025
▁fever	-11.6026
lac	-11.6027
▁mimic	-11.6027
▁conscious	-11.6029
base	-11.603
▁Treasury	-11.6031
▁flashback	-11.6031
▁capabilit	-11.6037
▁Ré	-11.6039
▁accurac	-11.6039
aro	-11.604
▁vault	-11.604
▁Pont	-11.6046
croft	-11.6046
▁limestone	-11.6048
▁negotiate	-11.6049
kka	-11.6052
▁Sum	-11.6052
mil	-11.6056
▁basement	-11.6057
▁barrack	-11.6058
▁Lodge	-11.6059
rail	-11.6059
▁Engineer	-11.6061
WR	-11.6064
▁Easter	-11.6064
▁mann	-11.6065
▁stomach	-11.6066
▁AIDS	-11.6066
▁Mach	-11.6066
▁synthesizer	-11.6067
▁Lance	-11.6067
▁Warsaw	-11.6068
▁spine	-11.6072
▁Tyr	-11.6072
▁Ferguson	-11.6075
▁reel	-11.6076
▁forgot	-11.6076
▁Avon	-11.6078
▁Hispanic	-11.6084
▁dominate	-11.6084
▁Franz	-11.6086
▁sanction	-11.6086
cycl	-11.6096
▁ditch	-11.6097
▁laying	-11.6097
anga	-11.6099
▁Bangladesh	-11.6102
▁Taxonom	-11.6102
▁Variety	-11.6102
▁proto	-11.6102
FA	-11.6103
▁tribal	-11.6104
▁robot	-11.6105
▁nests	-11.6108
▁Citizen	-11.611
▁Columbus	-11.611
▁Neptune	-11.611
▁shooter	-11.6111
▁homage	-11.6112
▁260	-11.6112
izer	-11.6112
▁slide	-11.6115
▁Sussex	-11.6119
▁Source	-11.6119
▁Rice	-11.6119
▁Britney	-11.612
▁Kai	-11.6121
▁utter	-11.6122
▁Direction	-11.6124
▁cultivat	-11.6124
▁bend	-11.6125
▁relevant	-11.6128
▁goalkeeper	-11.6129
▁enforcement	-11.613
▁amino	-11.6134
▁errors	-11.6134
▁comput	-11.6135
▁Fernand	-11.6137
DF	-11.6138
▁negotiated	-11.614
amp	-11.6141
▁Yoshi	-11.6142
▁suburban	-11.6151
▁storey	-11.6151
▁Morton	-11.6151
▁streams	-11.6153
▁Reynolds	-11.6155
▁administrator	-11.6155
▁Serbs	-11.6156
▁marble	-11.6157
▁herald	-11.6159
mag	-11.6159
case	-11.616
▁Chad	-11.6161
rig	-11.6161
▁relieve	-11.6163
▁announce	-11.6163
extant	-11.6164
▁intentional	-11.6165
wald	-11.6166
▁overlap	-11.6169
▁coaster	-11.6169
▁invention	-11.617
▁Philippine	-11.6171
helm	-11.6173
▁imagin	-11.6173
▁socialist	-11.6174
oa	-11.6178
▁mentor	-11.6181
▁hate	-11.6182
▁Siege	-11.6185
▁blown	-11.6187
▁Scotia	-11.6191
▁Lucy	-11.6192
▁witch	-11.6192
uin	-11.6192
▁imprisonment	-11.6193
▁proven	-11.6197
▁ste	-11.6197
▁honorar	-11.6197
▁Carte	-11.6197
▁nobility	-11.62
▁cantata	-11.62
▁seizure	-11.62
▁hardware	-11.6201
icus	-11.6204
▁planes	-11.6204
▁Beyond	-11.6209
▁innovative	-11.6209
achi	-11.6209
▁Scr	-11.6209
▁Munich	-11.621
▁lean	-11.621
▁bold	-11.6212
▁Linda	-11.6212
▁Care	-11.6214
▁Lithuania	-11.6214
owski	-11.6215
▁consumed	-11.6215
▁scope	-11.6215
▁Eugene	-11.6218
aught	-11.6218
▁presid	-11.6219
tica	-11.6221
▁shipyard	-11.6222
▁Indo	-11.6222
▁communicate	-11.6226
▁twelfth	-11.6227
▁posed	-11.6227
▁Popular	-11.6228
▁constituenc	-11.6236
▁suspicion	-11.6236
▁limitations	-11.6236
▁Lanka	-11.624
▁Eighth	-11.624
SS	-11.6242
▁commerce	-11.6245
▁incorrect	-11.6245
▁reunit	-11.6246
anti	-11.6247
issa	-11.6247
▁Myst	-11.6247
▁detain	-11.6261
▁incorporat	-11.6266
▁affecting	-11.6266
▁hostage	-11.6268
▁Dart	-11.627
▁Mut	-11.627
▁maturity	-11.6272
▁referendum	-11.6272
▁analog	-11.6276
oco	-11.6277
▁Hebrew	-11.6281
▁Arc	-11.6282
▁shale	-11.6283
▁fri	-11.6285
▁Maj	-11.6289
▁Til	-11.6291
▁tunnels	-11.6292
nica	-11.6294
▁prosper	-11.6298
▁Nebraska	-11.6299
▁Beast	-11.6299
▁Dawn	-11.63
crat	-11.6302
▁abolished	-11.6303
▁Ada	-11.6306
▁metaphor	-11.6308
▁rectang	-11.6308
▁parasite	-11.6309
▁Maple	-11.6312
▁Attack	-11.6318
▁determin	-11.6318
▁Derek	-11.6319
gui	-11.6319
▁Pier	-11.6322
▁1859	-11.6323
▁penn	-11.6324
▁Hammond	-11.6327
▁municipality	-11.6329
▁miner	-11.6329
▁chicken	-11.6331
▁MC	-11.6331
▁Lay	-11.6332
▁constitute	-11.6333
▁Kr	-11.6335
▁Rhys	-11.6338
▁orbital	-11.634
▁powder	-11.6341
▁underlying	-11.6344
▁Chapter	-11.6346
▁emphasize	-11.6348
▁Gwen	-11.6349
▁honours	-11.6351
▁ja	-11.6351
▁maneuvers	-11.6352
▁informal	-11.6353
▁bonds	-11.6353
▁renown	-11.6354
▁illustrations	-11.6355
▁fortifi	-11.6358
▁Rather	-11.636
▁democrac	-11.6363
▁Slo	-11.6364
▁FC	-11.6365
▁Blaine	-11.6366
▁Lois	-11.6368
▁Brit	-11.6372
▁wool	-11.6376
akh	-11.6376
▁Hamburg	-11.6379
▁missiles	-11.6379
▁Sunderland	-11.6381
▁Athenian	-11.6381
▁Remix	-11.6382
▁Smok	-11.6383
▁insult	-11.6389
▁decease	-11.6391
▁Volume	-11.6391
▁Rapid	-11.6391
▁Tank	-11.6395
▁Witch	-11.6397
▁efficiency	-11.64
▁genius	-11.64
▁Salisbur	-11.64
ović	-11.6402
▁diagnosi	-11.6409
▁Joyce	-11.6411
▁adaptations	-11.6415
▁Robertson	-11.6415
▁Canberra	-11.6418
▁rendition	-11.6418
▁virtue	-11.6418
▁Cecil	-11.6418
PD	-11.642
▁mouse	-11.6422
fre	-11.6423
▁excavat	-11.6423
▁seasonal	-11.6423
▁cement	-11.6424
▁Rosen	-11.6425
▁Close	-11.6425
▁Wick	-11.6426
▁Peru	-11.6427
▁sink	-11.6428
▁Equ	-11.6429
quet	-11.6433
▁archive	-11.6433
▁subsidiary	-11.6436
▁adoption	-11.6439
▁Midland	-11.644
adh	-11.6443
▁Hugo	-11.6443
AD	-11.6444
▁preservation	-11.6445
▁Holocaust	-11.6446
▁balloon	-11.6448
▁protective	-11.6449
▁angel	-11.6454
▁Kitt	-11.6455
▁scream	-11.6455
▁Sat	-11.6455
▁vector	-11.6455
▁McKe	-11.6456
▁Fraser	-11.6456
▁preview	-11.6457
▁torn	-11.646
bourne	-11.6464
▁Quinn	-11.6464
comb	-11.6465
lde	-11.6465
▁annoy	-11.6465
▁atoms	-11.6465
▁Saw	-11.6466
▁Palestinian	-11.6469
clu	-11.6472
▁deficit	-11.6473
▁Kom	-11.6474
▁Kay	-11.6475
▁Vir	-11.6476
▁adviser	-11.6482
▁triangle	-11.6483
▁umpire	-11.6483
▁Torres	-11.6483
▁correspondence	-11.6483
▁Lesser	-11.6484
▁Willie	-11.6485
▁CA	-11.6491
▁societies	-11.6492
▁Joel	-11.6494
▁Primar	-11.6496
wee	-11.6498
flu	-11.6499
▁binding	-11.65
▁Soldier	-11.6501
▁pigeon	-11.6501
▁Winchester	-11.6501
▁acute	-11.6502
▁Cock	-11.6511
▁summary	-11.6511
PR	-11.6513
▁Jenna	-11.6513
▁Kemp	-11.6515
▁brass	-11.6515
▁tyre	-11.6515
▁1845	-11.6517
▁topics	-11.6517
▁indication	-11.6519
▁safely	-11.652
▁fraud	-11.652
▁Karen	-11.6521
▁axis	-11.6521
▁organs	-11.6525
▁Guards	-11.6529
▁procedures	-11.6531
▁Transit	-11.6536
hydr	-11.654
rand	-11.6543
▁seventeen	-11.6545
▁forget	-11.6549
▁Fel	-11.6551
▁Maxim	-11.6552
▁Rou	-11.6553
▁alleg	-11.6554
▁Magn	-11.6557
▁Lenin	-11.6557
▁amend	-11.6558
▁contrary	-11.6558
▁1200	-11.6559
▁plug	-11.6559
▁Brighton	-11.656
▁explod	-11.6565
▁Assistant	-11.6566
▁Bio	-11.6567
▁comfort	-11.6567
▁Whitney	-11.6567
▁animator	-11.6569
▁breakdown	-11.6569
▁Angela	-11.657
ctic	-11.6571
▁collaborator	-11.6571
▁oppose	-11.6571
▁Lad	-11.6574
▁sexuality	-11.6575
▁Cambodia	-11.6575
▁relax	-11.6575
▁nominal	-11.6576
oun	-11.6579
▁Ost	-11.6582
▁coupled	-11.6582
▁HIV	-11.6585
06	-11.6586
▁delight	-11.659
worthy	-11.6592
▁trunk	-11.6593
▁Timberlake	-11.6594
▁vegetable	-11.6594
▁emigrat	-11.6594
▁Mam	-11.6596
▁Ul	-11.6599
92	-11.6602
▁speakers	-11.6604
▁Compar	-11.6607
▁Petersburg	-11.6607
▁mon	-11.6608
iah	-11.6609
▁114	-11.6611
▁Alexandria	-11.6612
▁Giant	-11.6613
▁ESPN	-11.6613
▁Bailey	-11.6613
▁heaven	-11.6613
▁interface	-11.6613
▁ox	-11.6619
▁Norton	-11.6619
▁Wolverine	-11.6622
▁terrestrial	-11.6622
▁Challenge	-11.6622
▁availability	-11.6622
▁Racing	-11.6623
▁inquiry	-11.6624
▁Wang	-11.6624
▁Vick	-11.6625
▁graph	-11.6626
▁Wan	-11.6629
beck	-11.6629
▁Cut	-11.6631
▁excited	-11.6632
▁hymn	-11.6632
▁Omaha	-11.6632
▁Portsmouth	-11.6632
▁merge	-11.6633
▁Toward	-11.6633
▁swim	-11.6634
▁rays	-11.6635
▁manifest	-11.6638
ía	-11.6638
burgh	-11.6638
▁decommissioned	-11.665
▁Information	-11.665
▁Southwest	-11.6661
▁Sr	-11.6665
▁Given	-11.6666
▁Singh	-11.6667
▁dealer	-11.6667
▁embass	-11.6669
▁Present	-11.667
pir	-11.667
▁Dayton	-11.6674
▁fantastic	-11.6679
▁Jazz	-11.668
mission	-11.6682
illi	-11.6683
▁Speed	-11.6685
▁cart	-11.6686
▁Forbes	-11.6689
▁Aircraft	-11.6692
tero	-11.6696
▁Elliott	-11.6697
▁calendar	-11.6698
▁rode	-11.6698
▁striker	-11.6698
▁Durham	-11.6699
shima	-11.67
▁vent	-11.6701
▁McA	-11.6702
▁diver	-11.6704
▁poisoning	-11.6704
▁Scouting	-11.6706
▁Gui	-11.6706
▁contaminat	-11.6706
▁brutal	-11.6712
assi	-11.6712
▁Change	-11.6712
▁Feel	-11.6712
▁maritime	-11.6716
▁Fiction	-11.6718
▁Lab	-11.672
▁Places	-11.672
escu	-11.6721
▁Gran	-11.6722
oria	-11.6729
▁relegat	-11.6731
▁MI	-11.6732
cane	-11.6732
▁dish	-11.6732
▁Austen	-11.6736
▁citizenship	-11.6736
izz	-11.6739
self	-11.6741
▁retro	-11.6741
▁televis	-11.6741
▁AR	-11.6742
▁1820	-11.6742
▁primitive	-11.6745
▁Sicily	-11.6745
▁concluding	-11.6745
▁hol	-11.6745
▁veto	-11.6748
▁Pepper	-11.6749
▁121	-11.6754
▁Hoffman	-11.6754
▁gospel	-11.6755
IP	-11.6758
▁obligation	-11.6758
zzi	-11.6758
▁Webber	-11.676
▁Shawn	-11.676
nat	-11.6761
▁rag	-11.6764
▁Cool	-11.6765
▁Duchess	-11.6765
▁McN	-11.6766
▁determination	-11.6767
ozo	-11.6771
▁Batt	-11.6772
oro	-11.6772
raja	-11.6772
▁SMS	-11.6772
▁superstructure	-11.6773
▁Trial	-11.6774
▁Cran	-11.6775
▁Path	-11.6775
▁intercepted	-11.6778
▁conserv	-11.678
▁comedian	-11.6783
▁endangered	-11.6784
▁gentle	-11.6784
▁dump	-11.6786
isco	-11.6789
enburg	-11.6792
▁plaque	-11.6792
▁sympathetic	-11.6793
▁helicopters	-11.6794
hop	-11.6797
mut	-11.6798
▁presum	-11.68
▁generator	-11.6802
▁buff	-11.6808
▁Epi	-11.6808
▁....	-11.6809
▁Arn	-11.6809
▁Gardner	-11.6812
uga	-11.6813
▁Lynn	-11.6814
ID	-11.6815
▁countryside	-11.6816
▁Congo	-11.6816
▁predecessors	-11.6816
▁vest	-11.682
▁Mumbai	-11.6821
▁reservation	-11.6821
▁Crash	-11.6822
▁alteration	-11.6823
▁coral	-11.6825
pass	-11.6827
▁Boyd	-11.6828
▁dominan	-11.6829
▁illustrate	-11.683
▁Bahamas	-11.6831
▁keyboards	-11.6831
▁stuck	-11.6831
▁welcom	-11.6832
▁workshop	-11.6832
▁melt	-11.6833
▁cats	-11.684
▁Ramon	-11.684
▁variet	-11.6842
▁ceremonial	-11.6844
▁dose	-11.6844
▁slipp	-11.6845
pil	-11.6847
▁retir	-11.6849
▁McMahon	-11.685
▁eccentric	-11.685
▁Mala	-11.6852
▁Cruz	-11.6854
▁dig	-11.6854
rip	-11.6857
▁Meet	-11.6859
▁rolling	-11.6859
▁Joshua	-11.686
▁gar	-11.686
▁northeastward	-11.6862
▁Gardens	-11.6868
▁implementation	-11.6869
▁satisfied	-11.6877
▁exaggerat	-11.6879
▁choreograph	-11.6879
▁107	-11.6881
▁Lyon	-11.6886
▁Jose	-11.6886
▁Tap	-11.6887
▁Duck	-11.6888
▁oral	-11.6889
dig	-11.6889
▁Broad	-11.689
▁Tampa	-11.6892
▁Gin	-11.6894
▁1854	-11.6894
▁mega	-11.6896
▁Commodore	-11.6898
▁jewel	-11.6898
▁submission	-11.6899
▁Monica	-11.69
entity	-11.6903
▁Prussia	-11.6905
care	-11.6907
▁performer	-11.6908
▁Guest	-11.6909
▁consultant	-11.691
▁narrator	-11.691
▁watches	-11.6915
▁enforc	-11.6916
▁IX	-11.6917
▁ancestors	-11.6918
▁Pearson	-11.6918
▁customs	-11.6923
▁persisted	-11.6924
▁semifinal	-11.6927
▁augment	-11.6927
▁Distribution	-11.6927
▁NC	-11.6928
▁Savage	-11.693
stair	-11.6931
▁acknowledge	-11.6931
▁advertise	-11.6935
▁Concord	-11.6937
▁frustrated	-11.6937
▁Newark	-11.6937
▁NME	-11.6938
▁chant	-11.694
woman	-11.6941
▁motivation	-11.6942
▁1857	-11.6943
▁Dana	-11.6945
▁Iraqi	-11.6945
▁contingent	-11.6946
▁precursor	-11.6946
▁prominence	-11.6946
▁clever	-11.6946
▁starter	-11.6952
mol	-11.6952
▁skiing	-11.6953
▁oz	-11.6956
▁distress	-11.6956
▁Private	-11.6957
▁sac	-11.696
▁Producer	-11.696
agan	-11.696
▁Lopez	-11.6966
▁democratic	-11.6966
▁Dry	-11.6967
▁immigration	-11.6967
▁Idol	-11.6968
▁thermal	-11.6969
▁businessman	-11.6973
▁Rovers	-11.6976
▁shortened	-11.6978
arra	-11.6978
▁Tel	-11.6979
▁fees	-11.6982
▁Pix	-11.6984
▁ecosystem	-11.6985
ulous	-11.6985
▁flourish	-11.6986
▁Wong	-11.6991
hun	-11.6992
▁Pel	-11.6992
▁Ple	-11.6993
▁Meg	-11.6993
▁Gamepla	-11.6998
▁Naga	-11.6998
▁trilog	-11.7003
keeper	-11.7004
▁Rise	-11.7008
▁Teen	-11.701
▁Abd	-11.701
osphere	-11.7011
SE	-11.7013
▁Diana	-11.7013
▁Fitz	-11.7015
aceae	-11.7015
▁imagination	-11.7018
▁Boul	-11.702
▁Ox	-11.7021
▁Mata	-11.7024
▁Elder	-11.7036
▁prediction	-11.7039
atch	-11.7042
▁siblings	-11.7042
▁median	-11.7044
▁Bet	-11.7045
▁Methodist	-11.7045
▁Folk	-11.7045
post	-11.705
▁Holden	-11.7052
▁buses	-11.7053
▁Basil	-11.7054
▁Georgian	-11.7054
▁Blanc	-11.7056
▁bug	-11.7058
zzo	-11.7062
▁Moh	-11.7064
▁burden	-11.7064
▁Aero	-11.7064
▁brush	-11.7064
▁derivative	-11.7065
PM	-11.7066
uxiliary	-11.7066
IN	-11.7068
▁glider	-11.7069
▁stopping	-11.707
▁farmland	-11.7074
▁arrow	-11.7075
▁Sugar	-11.7075
▁monsters	-11.7078
▁Environmental	-11.7079
ggle	-11.7082
▁displacement	-11.7084
screen	-11.7089
▁worsen	-11.7092
▁compartment	-11.7093
▁Danube	-11.7093
▁Colombia	-11.7093
▁larvae	-11.7093
▁Libya	-11.7095
▁Brock	-11.7096
▁inspection	-11.7096
▁brake	-11.7097
83	-11.7097
▁enhance	-11.7097
▁hell	-11.7098
▁archbishop	-11.7102
▁Ent	-11.7103
bha	-11.7103
▁propell	-11.7104
▁Dame	-11.7105
▁morale	-11.7106
▁Ivy	-11.7111
▁outlets	-11.7114
▁surf	-11.7114
▁san	-11.7116
▁restart	-11.7116
▁Barber	-11.7117
▁suburbs	-11.7117
▁characteris	-11.7117
▁Compton	-11.7118
▁systematic	-11.712
ffin	-11.7122
▁Claude	-11.7123
▁hub	-11.7124
meric	-11.7125
vell	-11.7129
▁Denis	-11.7131
▁graduation	-11.7135
▁suite	-11.7136
▁AU	-11.7136
ritten	-11.7137
rock	-11.7137
▁banner	-11.7138
▁coincid	-11.7138
▁recreational	-11.7138
▁Engineers	-11.7142
▁Fringe	-11.7142
▁owl	-11.7143
▁Pap	-11.7144
▁superhero	-11.7147
▁gifts	-11.7149
▁rib	-11.715
▁overhaul	-11.7152
▁Sergeant	-11.7153
▁Hur	-11.7153
▁Chance	-11.7157
▁Hannah	-11.7159
litz	-11.716
▁pour	-11.716
▁Xi	-11.7166
▁Joy	-11.7169
▁ideolog	-11.717
▁Julia	-11.717
▁Phantom	-11.7171
▁Gospel	-11.7172
guard	-11.7172
▁Persona	-11.7173
▁Diet	-11.7178
▁Adriatic	-11.7181
▁Georg	-11.7184
▁magnet	-11.7186
▁badge	-11.7187
▁Pike	-11.7188
CD	-11.7189
▁bias	-11.7191
▁enthusiasm	-11.7191
▁320	-11.7192
▁profession	-11.7193
▁opener	-11.7199
▁Lip	-11.7199
▁Spitfire	-11.7201
▁Immediate	-11.7201
▁hypo	-11.7203
▁showcase	-11.7203
▁commemorat	-11.7205
▁Kingston	-11.721
▁Amazon	-11.7211
▁cancellation	-11.7211
▁landslide	-11.7211
▁Knowles	-11.7212
▁isotopes	-11.7212
▁Ashley	-11.7217
▁ears	-11.7217
▁dull	-11.7217
▁Sci	-11.7218
▁liken	-11.7219
▁breakthrough	-11.7221
▁registration	-11.7223
▁barn	-11.7232
▁Jew	-11.7233
lug	-11.7237
▁corrupt	-11.7237
▁Fol	-11.7239
▁Left	-11.724
fan	-11.7241
▁Dover	-11.7241
▁550	-11.7242
▁Balkan	-11.7242
▁undertake	-11.7244
▁Antarctic	-11.7245
▁Literar	-11.7252
▁dedication	-11.7253
▁Aber	-11.7254
▁Shak	-11.7257
▁dy	-11.7258
▁swell	-11.726
▁abrupt	-11.7261
▁nitrogen	-11.7261
▁stereotype	-11.7261
▁Antille	-11.7262
▁spy	-11.7262
▁Reid	-11.7264
▁Allan	-11.7265
▁isolation	-11.7266
▁1858	-11.7266
▁Screen	-11.7271
▁Individual	-11.7271
▁innocent	-11.7271
▁orientation	-11.7273
▁Table	-11.7275
▁vow	-11.7276
▁Haven	-11.7279
▁Wide	-11.7279
▁ballet	-11.728
▁spectrum	-11.7281
▁digit	-11.7284
▁prose	-11.7288
▁chip	-11.729
▁swift	-11.7291
▁Interior	-11.7291
▁overtime	-11.7294
▁slopes	-11.7295
▁118	-11.7296
▁WrestleMania	-11.7301
▁Bahrain	-11.7301
▁bred	-11.7302
▁retrieve	-11.7302
▁Use	-11.7305
▁Squ	-11.7307
union	-11.7308
▁Cara	-11.7308
▁Rey	-11.7308
▁Read	-11.731
▁contemporari	-11.7311
▁unwilling	-11.7311
▁Medicine	-11.7312
▁interfer	-11.7313
▁Wheeler	-11.7315
▁Tea	-11.7315
▁quantity	-11.7321
▁sandstone	-11.7323
▁tract	-11.7326
▁Event	-11.7328
anto	-11.733
▁plaza	-11.7331
▁Cant	-11.7332
▁1812	-11.7338
▁aspir	-11.7338
▁spiral	-11.7341
▁kidney	-11.7342
▁rubber	-11.7342
▁Drew	-11.7343
▁ministr	-11.7345
▁repris	-11.7345
▁alloy	-11.7345
WA	-11.7346
▁Hau	-11.7349
▁combin	-11.735
▁smuggl	-11.7351
▁intimate	-11.7352
▁patroll	-11.7352
terim	-11.7353
struc	-11.7355
▁Betty	-11.7357
▁dissent	-11.7362
sistence	-11.7368
▁Cage	-11.7368
▁185	-11.7369
▁Gai	-11.7369
▁constellation	-11.7372
▁entries	-11.7372
scape	-11.7372
▁Presidential	-11.7375
▁Rutherford	-11.7382
▁devotion	-11.7382
▁Afterwards	-11.7383
▁Underground	-11.7383
▁refusal	-11.7383
▁haunt	-11.7383
Craft	-11.7387
▁Agent	-11.7389
teau	-11.7391
▁depriv	-11.7392
▁Speaker	-11.7394
comfortable	-11.7396
▁flie	-11.7397
▁Quint	-11.7398
▁inhibit	-11.7398
▁bite	-11.74
▁climax	-11.7402
▁technologies	-11.7402
▁Hutton	-11.7402
▁Visual	-11.7402
▁XIII	-11.7403
▁Limited	-11.7404
ywhere	-11.7405
▁Yar	-11.7407
▁casemate	-11.7408
▁Qa	-11.7408
▁Donna	-11.7409
▁finalist	-11.7411
▁demolition	-11.7412
▁Horror	-11.7412
▁panic	-11.7413
▁Mini	-11.7414
▁Vaugh	-11.7415
▁1849	-11.7419
▁antibod	-11.742
▁projection	-11.742
▁variants	-11.7421
ocene	-11.7422
▁Dynasty	-11.7422
▁Sebastian	-11.7422
▁grandmother	-11.7422
▁plumage	-11.7422
▁Level	-11.7422
▁perimeter	-11.7423
▁Crazy	-11.7423
▁Faith	-11.7424
▁separat	-11.7424
AP	-11.7427
▁insight	-11.743
▁swallow	-11.7432
odon	-11.7433
▁Thailand	-11.7433
▁Sharon	-11.7434
▁330	-11.7438
ady	-11.7438
▁Liu	-11.7441
▁Rican	-11.7441
opo	-11.7442
▁Halifax	-11.7443
▁inferior	-11.7443
▁jungle	-11.7443
▁generic	-11.7443
gio	-11.7443
▁jacket	-11.7444
▁medley	-11.7444
▁gale	-11.7445
▁explorer	-11.7446
▁sitcom	-11.7446
▁reasonable	-11.7446
oper	-11.7449
▁Chal	-11.7451
▁pollution	-11.7453
▁Writers	-11.7454
▁Oil	-11.7455
▁Hick	-11.7456
▁assign	-11.7456
▁offence	-11.7462
▁persona	-11.7463
▁assumption	-11.7463
▁inadequate	-11.7463
▁philosophical	-11.7463
▁offend	-11.7463
▁unst	-11.7464
▁plat	-11.7465
gne	-11.7468
▁sur	-11.7468
▁cage	-11.7469
▁Complete	-11.747
▁Gol	-11.7471
▁Pil	-11.7473
▁Jain	-11.7475
▁SAS	-11.7475
eux	-11.7481
▁doubled	-11.7483
▁recaptur	-11.7483
▁Gould	-11.7484
▁hamper	-11.7484
▁timing	-11.7484
▁freestyle	-11.7484
▁occurrence	-11.7484
tat	-11.7485
▁nucleus	-11.7486
▁Metroid	-11.7487
▁stripe	-11.7487
▁Wade	-11.749
serv	-11.7493
▁stabiliz	-11.7494
▁calci	-11.7496
▁viewer	-11.7499
morph	-11.7499
▁submit	-11.7499
▁Naka	-11.7501
ija	-11.7504
▁dwelling	-11.7504
▁welfar	-11.7504
▁trout	-11.7505
▁Rao	-11.7506
▁marginal	-11.7506
▁boarding	-11.7506
arrington	-11.7507
▁Lions	-11.7508
▁beds	-11.7512
ovi	-11.7512
▁Saudi	-11.7513
▁Wizard	-11.7514
▁motive	-11.7514
▁Archer	-11.7516
▁criteria	-11.7517
▁Freeway	-11.7518
▁continual	-11.7519
▁Erie	-11.7519
▁Echo	-11.752
▁Pie	-11.7523
word	-11.7523
▁Put	-11.7524
▁revelation	-11.7524
▁warehouse	-11.7524
▁Bloom	-11.7525
▁cite	-11.7525
▁202	-11.7527
▁discard	-11.7529
▁128	-11.7536
▁Doll	-11.7536
▁prolong	-11.7536
▁slope	-11.7537
▁Discovery	-11.7537
zan	-11.7541
▁amid	-11.7543
▁Trafford	-11.7545
▁Bradford	-11.7546
▁Lum	-11.7552
▁stimulat	-11.7553
▁Strat	-11.7554
▁deplet	-11.7555
▁Away	-11.7558
▁Wilm	-11.7559
▁Kro	-11.756
rio	-11.7565
▁ARIA	-11.7566
script	-11.7566
▁sovereignt	-11.7566
▁leap	-11.7568
▁Levi	-11.7569
lick	-11.7573
nock	-11.7573
▁supervisor	-11.7577
▁Carn	-11.7582
▁mess	-11.7582
bun	-11.7582
▁Hind	-11.7585
▁palm	-11.7585
▁helmet	-11.7586
▁Gustav	-11.7586
▁Title	-11.7588
▁shake	-11.759
▁terrible	-11.7592
▁Tina	-11.7592
▁Jamie	-11.7592
▁Diane	-11.7596
▁thank	-11.7597
pati	-11.7597
▁earl	-11.7597
▁faithful	-11.7599
▁exceeding	-11.7603
▁Expo	-11.7604
▁132	-11.7604
▁Cope	-11.7604
tun	-11.7604
▁freed	-11.7604
▁Dre	-11.7605
▁Norwich	-11.7607
▁Dot	-11.7609
▁Brittan	-11.7618
▁hometown	-11.7618
▁discrimination	-11.7619
▁Clear	-11.762
▁facilitate	-11.7621
▁clinical	-11.7623
▁Jessica	-11.7627
▁Lafayette	-11.7627
▁trumpet	-11.7627
RO	-11.763
▁spar	-11.763
▁116	-11.7631
▁Terri	-11.7631
▁infra	-11.7634
▁Breed	-11.7634
▁enforce	-11.7638
▁robber	-11.7638
▁Penguin	-11.7638
▁rebuilding	-11.7642
▁rip	-11.7643
▁dent	-11.7645
▁Brother	-11.7647
rose	-11.7647
▁Stewie	-11.7648
▁Negro	-11.7661
▁Mode	-11.7662
▁cod	-11.7669
▁tired	-11.7669
▁fog	-11.7673
▁archaeologist	-11.7675
▁pretend	-11.7676
▁Sleep	-11.7679
▁gills	-11.7685
▁sparse	-11.7685
II	-11.7685
fil	-11.7686
▁Stro	-11.7687
▁lens	-11.7689
crosse	-11.7689
▁dolphin	-11.769
▁eager	-11.7691
▁Rochester	-11.7691
gat	-11.7694
▁Ell	-11.7695
▁Gru	-11.7696
▁hitter	-11.7698
▁pp	-11.77
▁Structure	-11.77
▁tutor	-11.77
oso	-11.7705
ike	-11.7706
▁Color	-11.7706
▁650	-11.7707
▁cease	-11.7708
▁improvis	-11.7708
▁Weber	-11.7711
▁Happy	-11.7721
▁worthy	-11.7721
▁abstract	-11.7722
▁unrest	-11.7722
▁Reviewer	-11.7723
▁Joker	-11.7726
▁Memor	-11.7727
▁Sou	-11.7727
▁Von	-11.7728
▁lamp	-11.7729
▁automobile	-11.7732
▁iconic	-11.7733
▁Net	-11.7733
▁Wait	-11.7739
▁Emine	-11.774
cellular	-11.774
oshi	-11.7742
▁ancestor	-11.7742
▁encouraging	-11.7742
hil	-11.7744
▁122	-11.7748
▁Evening	-11.7751
▁fence	-11.7751
▁Canadiens	-11.7753
▁monsoon	-11.7753
▁Bend	-11.7753
▁Match	-11.7754
wyn	-11.7754
asco	-11.7754
▁Gore	-11.7761
▁sovereign	-11.7762
▁confiscat	-11.7763
▁Wyatt	-11.7763
▁Gale	-11.7767
▁Flash	-11.7768
colo	-11.7769
▁launching	-11.7772
▁Anglican	-11.7774
▁Brunswick	-11.7774
▁Hokie	-11.7775
▁Cohen	-11.7777
▁Farmer	-11.7778
▁Height	-11.7779
▁Giro	-11.7781
▁destin	-11.7782
loid	-11.7783
▁Champ	-11.7783
▁Carpenter	-11.7784
▁Preparation	-11.7784
▁Behind	-11.7784
▁gesture	-11.7784
▁purple	-11.7785
gau	-11.7786
▁chronic	-11.7787
▁marker	-11.7792
▁tiger	-11.7795
▁mortality	-11.7797
▁Cornell	-11.7798
▁CIA	-11.7801
▁Gunn	-11.7803
▁regret	-11.7805
▁Thorpe	-11.7807
Neill	-11.7808
▁sued	-11.7808
owitz	-11.7808
ovny	-11.781
centric	-11.7811
▁annex	-11.7813
▁Harbour	-11.7816
▁Oppenheimer	-11.7816
▁Perfect	-11.7816
▁Must	-11.7816
▁gase	-11.7816
gul	-11.7817
▁bail	-11.7819
▁AI	-11.7819
▁physicist	-11.7821
▁disclos	-11.7823
▁nationwide	-11.7827
▁ACC	-11.7828
▁remnant	-11.7829
▁1852	-11.783
ovich	-11.783
▁Forever	-11.7831
arch	-11.7832
▁Pleas	-11.7833
▁Louisville	-11.7833
▁chick	-11.7834
▁medication	-11.7837
▁stunn	-11.7837
▁manuscripts	-11.7838
▁lament	-11.784
▁Gat	-11.7842
class	-11.7843
gla	-11.7843
▁imitat	-11.7844
▁poetic	-11.7846
▁deadline	-11.7846
▁Annual	-11.7848
▁indoor	-11.7849
▁lady	-11.7849
▁Hindi	-11.785
▁colonist	-11.7856
▁Eagles	-11.7858
▁spontaneous	-11.7858
▁Thursday	-11.7858
▁jam	-11.7858
▁radioactive	-11.786
▁Fight	-11.7863
▁Recent	-11.7864
▁Greene	-11.7864
▁capability	-11.7865
▁mutation	-11.7865
uni	-11.787
▁accomplishment	-11.7872
▁Devi	-11.7873
▁pod	-11.7876
▁apprentice	-11.7879
▁polish	-11.788
UP	-11.788
▁Darre	-11.7881
blo	-11.7881
▁betray	-11.7884
▁revert	-11.7886
camp	-11.7887
▁Bala	-11.7889
▁foster	-11.789
▁Fellow	-11.789
▁hollow	-11.789
scope	-11.7891
▁Yankov	-11.7891
Reilly	-11.7891
heart	-11.7898
▁Malaya	-11.79
▁Volunteer	-11.7901
▁Mod	-11.7904
▁1847	-11.7907
▁Middlese	-11.7908
lang	-11.7911
▁Miguel	-11.7911
▁reproduction	-11.7912
▁Dub	-11.7913
▁concurrenc	-11.7919
▁Nolan	-11.792
▁skirmish	-11.7922
▁goaltender	-11.7922
▁Technical	-11.7922
▁denomination	-11.7922
▁radi	-11.7923
▁drunk	-11.7928
▁Cott	-11.7932
▁Lebanon	-11.7933
vari	-11.7934
▁Mori	-11.7937
▁Milton	-11.7938
▁particle	-11.7939
▁1855	-11.7939
▁broadside	-11.794
▁sensor	-11.7944
▁uncertaint	-11.7945
▁melodi	-11.7946
NR	-11.7948
eanwhile	-11.795
▁Kiel	-11.7953
▁devil	-11.7954
▁Lombard	-11.7954
▁sparrow	-11.7955
▁barge	-11.7956
bow	-11.796
▁Brett	-11.7962
▁Concern	-11.7965
▁enterprise	-11.7965
CL	-11.7966
▁Better	-11.7968
▁Stru	-11.7969
▁Fuji	-11.7971
▁testifie	-11.7972
▁complexity	-11.7972
▁maxim	-11.7973
mund	-11.7974
rama	-11.7974
▁cricketer	-11.7976
▁Lexington	-11.7976
▁Bavaria	-11.7976
▁Falcon	-11.7976
▁Shakir	-11.7979
asta	-11.798
▁Verde	-11.7983
▁reply	-11.7987
ecology	-11.7989
▁princess	-11.7993
▁gravel	-11.7997
▁stump	-11.7997
▁adher	-11.7999
▁Socialist	-11.8
▁Cedar	-11.8001
▁Pav	-11.8001
lun	-11.8002
▁WA	-11.8004
▁conceded	-11.8005
▁desir	-11.8005
SL	-11.8006
▁heating	-11.8006
▁recit	-11.8007
▁abundance	-11.8008
▁cottage	-11.8008
▁humour	-11.8009
▁Hun	-11.8013
▁compli	-11.8014
▁1846	-11.8014
▁analyst	-11.8014
▁Slam	-11.8016
▁Speak	-11.8019
▁Rupert	-11.8019
cade	-11.8019
▁Pill	-11.8022
▁Cod	-11.8027
▁helium	-11.8027
▁ethic	-11.8027
▁Damascus	-11.8029
▁Hundred	-11.8029
▁Hastings	-11.8029
▁coronation	-11.803
FL	-11.8031
▁bog	-11.8032
▁Hyde	-11.8036
▁Heat	-11.8036
▁Stern	-11.8039
▁unconscious	-11.804
▁viral	-11.8041
▁resemblance	-11.8042
▁Rein	-11.8046
▁Ill	-11.8047
▁Flam	-11.8049
▁resource	-11.805
omys	-11.8051
▁Humphrey	-11.8051
▁offspring	-11.8051
▁Hampton	-11.8052
▁diesel	-11.8056
▁guerrilla	-11.8062
▁victorious	-11.8062
▁spike	-11.8064
▁Zeld	-11.8066
▁Loch	-11.8067
▁assured	-11.8068
▁miniature	-11.8073
▁phenomena	-11.8073
▁cheek	-11.8073
▁dioxide	-11.8073
▁Clem	-11.8076
▁bur	-11.8076
▁intervene	-11.8077
▁1832	-11.8077
▁doll	-11.8078
▁Cover	-11.8082
▁rever	-11.8083
aph	-11.8083
▁accusations	-11.8084
▁Alons	-11.8084
▁nesting	-11.8085
quit	-11.8085
▁Sanskrit	-11.8094
▁Stockholm	-11.8095
▁Hung	-11.8098
▁141	-11.81
ibi	-11.8104
▁definitive	-11.8105
▁ingredient	-11.8105
▁Clare	-11.811
▁Kri	-11.8111
mod	-11.8111
fla	-11.8112
▁Azerbaijan	-11.8116
▁hiatus	-11.8116
▁Tun	-11.8122
▁Oka	-11.8125
▁Gear	-11.8125
▁Henri	-11.8126
▁bicycle	-11.8127
▁reddish	-11.8127
▁Chetnik	-11.8127
▁dismissal	-11.8128
▁Keep	-11.8133
▁Bil	-11.8133
▁devised	-11.8137
ethyl	-11.8138
▁skat	-11.8138
▁Academic	-11.8138
▁Halloween	-11.8138
▁intensive	-11.8138
hau	-11.8138
▁pagan	-11.814
▁ankle	-11.814
▁fiber	-11.8141
▁harder	-11.8145
illon	-11.8145
▁138	-11.8146
▁Covenant	-11.8149
▁Thirty	-11.8149
▁Specie	-11.8149
▁persistent	-11.815
phen	-11.8152
▁elimination	-11.8153
▁Eng	-11.8158
▁Grande	-11.8158
▁Jets	-11.8159
▁Language	-11.816
stronomy	-11.816
eti	-11.816
▁deer	-11.8167
▁Safety	-11.8171
▁imply	-11.8171
▁oath	-11.8173
ival	-11.8174
▁Bin	-11.8175
assa	-11.8175
▁reinstat	-11.8175
rank	-11.8177
▁Kind	-11.8178
▁Albanian	-11.8181
▁smash	-11.8182
▁Raider	-11.8182
▁cooler	-11.8183
▁feedback	-11.8183
▁livestock	-11.8184
▁Lit	-11.8186
▁crossover	-11.8186
▁Fuller	-11.819
▁Dai	-11.8191
▁clad	-11.8191
▁Brisbane	-11.8193
▁Adolf	-11.8193
▁Hob	-11.8193
▁Mansfield	-11.8193
▁institute	-11.8195
▁cure	-11.8196
liv	-11.8196
▁labell	-11.8199
bie	-11.8201
▁lend	-11.8202
▁Gur	-11.8203
▁Approximate	-11.8204
▁Minneapolis	-11.8204
▁Shackleton	-11.8204
▁Buckingham	-11.8204
▁humorous	-11.8207
GM	-11.8207
▁Lauren	-11.8207
kk	-11.8209
▁consum	-11.8211
▁contractor	-11.8223
▁Give	-11.8224
▁Meredith	-11.8226
ynopsis	-11.8227
▁Cardinal	-11.823
▁install	-11.8235
▁abbey	-11.8237
▁Mona	-11.8237
▁empower	-11.8238
▁backdrop	-11.8239
▁nicknam	-11.8245
▁Aside	-11.8246
▁Worcester	-11.8247
▁Scientific	-11.8248
▁omitt	-11.8248
▁Hil	-11.8248
▁Dogget	-11.8249
▁practic	-11.8252
1856	-11.8253
▁Saga	-11.8253
▁remaster	-11.8257
▁Proto	-11.8258
▁Election	-11.8261
▁posthumously	-11.8263
▁Bergen	-11.8263
▁dispos	-11.8264
▁curricul	-11.8266
▁camouflage	-11.827
▁sleeve	-11.827
▁Animation	-11.827
▁EMI	-11.827
▁Coalition	-11.827
▁frontal	-11.8272
▁pride	-11.8274
▁wan	-11.8276
▁eighteenth	-11.8276
▁renovat	-11.8277
▁119	-11.8278
▁resurrect	-11.8281
▁Guam	-11.8281
▁Winston	-11.8284
▁presumabl	-11.8284
leigh	-11.8285
▁Tir	-11.8286
▁Lud	-11.8286
▁freez	-11.8287
▁1853	-11.8287
▁Flo	-11.8288
▁Experiment	-11.8292
chester	-11.8292
▁profound	-11.8292
▁Fine	-11.8303
▁degenerat	-11.8303
▁Wildlife	-11.8303
storm	-11.8305
inder	-11.8305
▁Charter	-11.8308
▁heroine	-11.8309
▁Gren	-11.8313
force	-11.8314
▁skilled	-11.8315
▁compose	-11.8318
▁grip	-11.8323
▁replay	-11.8323
▁stalk	-11.8325
▁blu	-11.8326
▁Investigation	-11.8327
▁dim	-11.8329
illard	-11.833
uar	-11.8331
▁dramatical	-11.8333
▁melodic	-11.8334
▁scratch	-11.8336
▁Armour	-11.8339
▁loot	-11.834
▁Beatty	-11.834
▁Baja	-11.8342
▁overthrow	-11.8343
▁boxes	-11.8345
▁Rai	-11.8347
▁calculation	-11.8347
▁Numero	-11.8347
▁pistol	-11.8347
▁Juliet	-11.8348
cti	-11.8349
▁catalogue	-11.835
lob	-11.8353
▁cruel	-11.8354
▁Amb	-11.8357
▁stanza	-11.8359
▁Smart	-11.8359
▁froze	-11.836
ride	-11.8362
PI	-11.8363
pal	-11.8363
stage	-11.8367
▁GameSp	-11.8368
▁Yale	-11.8369
▁Leopold	-11.837
▁Northumbria	-11.837
▁recipe	-11.837
▁Prom	-11.837
▁statistical	-11.837
▁mating	-11.8372
▁Taka	-11.8373
▁Cherry	-11.8373
▁clone	-11.8374
▁peers	-11.8377
▁Dio	-11.8378
▁surgeon	-11.8381
▁elevator	-11.8381
▁grenade	-11.8381
▁thread	-11.8382
▁Colbert	-11.8382
lift	-11.8383
borg	-11.8383
▁Ride	-11.8384
▁metallic	-11.8385
▁scan	-11.8385
▁McM	-11.8386
▁thrill	-11.8387
▁gut	-11.8388
▁Full	-11.8388
▁Supporting	-11.8389
▁ranch	-11.8389
vie	-11.8392
▁jealous	-11.8392
▁Orlando	-11.8392
▁Miz	-11.8394
▁Shane	-11.8395
▁consul	-11.8397
dez	-11.8401
▁observing	-11.8403
▁propulsi	-11.8403
▁Jag	-11.8404
▁Tsar	-11.8412
enko	-11.8412
▁controll	-11.8413
▁brood	-11.8415
▁makeup	-11.8418
▁pat	-11.842
▁Than	-11.842
▁Vale	-11.8423
MP	-11.8423
cta	-11.8425
▁Wel	-11.8425
▁molar	-11.8427
▁shade	-11.843
▁complaint	-11.8433
▁Kali	-11.8435
mere	-11.8436
OP	-11.8436
▁Seymour	-11.8437
▁abortion	-11.844
▁lineage	-11.8446
▁conform	-11.8447
▁Kapoor	-11.8448
▁wildlife	-11.8449
nin	-11.8455
▁Mika	-11.8457
▁unprecedented	-11.846
▁Dexter	-11.846
▁adverse	-11.846
▁Grow	-11.8464
▁limbs	-11.8469
▁periodic	-11.8471
▁hierarch	-11.8471
jin	-11.8476
▁Manila	-11.8477
▁Cubs	-11.8478
▁Pay	-11.8479
▁fungi	-11.848
▁cooking	-11.848
opus	-11.8481
▁bust	-11.8482
▁zinc	-11.8482
▁module	-11.8482
▁solitar	-11.8482
▁Arrow	-11.8486
hat	-11.8487
▁1841	-11.8488
▁Spur	-11.8489
▁Tomb	-11.8489
▁comparative	-11.8494
▁Knox	-11.8494
▁Erin	-11.8494
shes	-11.8497
▁Wesley	-11.8499
▁Chin	-11.8499
▁republic	-11.8501
▁Crisi	-11.8502
▁Dixon	-11.8505
isi	-11.8505
▁Previous	-11.8505
▁bike	-11.8506
▁Carroll	-11.8506
▁framework	-11.8507
▁Oakland	-11.8509
▁Working	-11.851
▁comeback	-11.8511
▁Campus	-11.8512
▁Troop	-11.8512
▁Organ	-11.8512
▁Sandy	-11.8515
▁assassinat	-11.8517
▁reside	-11.8518
▁dragg	-11.8518
aru	-11.8522
▁temper	-11.8523
tow	-11.8525
ught	-11.8527
▁Sinatra	-11.8527
▁Vid	-11.8528
▁penalt	-11.853
▁everyday	-11.8531
▁sacked	-11.8531
▁Warriors	-11.8532
▁Lam	-11.8532
▁Hammer	-11.8535
▁Rah	-11.8537
mpton	-11.8537
▁disapprov	-11.8539
▁listeners	-11.8539
▁Fast	-11.854
▁reclaim	-11.8541
▁strikeout	-11.8542
suke	-11.8546
lav	-11.8547
▁Jackie	-11.8548
▁oblig	-11.8548
▁Believe	-11.8549
▁Blade	-11.8549
▁ancestry	-11.855
▁Albion	-11.855
▁certificate	-11.8551
▁courtyard	-11.8552
SM	-11.8554
▁Brig	-11.8555
▁Magnus	-11.8556
equality	-11.8558
hak	-11.8559
▁Belarus	-11.8561
▁Belgrade	-11.8561
▁Stur	-11.8562
kowski	-11.8564
▁cinematic	-11.8564
▁Spect	-11.8565
▁Hou	-11.8569
imo	-11.857
▁reus	-11.8571
▁Hemingway	-11.8573
▁dignit	-11.8574
▁trainer	-11.8575
▁jack	-11.8578
continental	-11.8578
▁bark	-11.8579
▁pile	-11.8579
▁Deal	-11.8582
onde	-11.8583
▁capp	-11.8585
▁Cav	-11.8586
▁Welles	-11.8587
▁symphon	-11.8588
▁1844	-11.859
▁optical	-11.8591
▁Gamb	-11.8593
▁synonym	-11.8594
▁Victory	-11.8595
▁novelist	-11.8595
bou	-11.8595
▁stiff	-11.8596
▁smell	-11.8596
ević	-11.8598
eaten	-11.8601
▁hypha	-11.8601
▁Gross	-11.8601
▁LA	-11.8602
▁confession	-11.8602
▁Comment	-11.8603
▁overnight	-11.8604
▁altar	-11.8605
▁befriend	-11.8607
▁frustration	-11.8607
▁Tip	-11.8607
▁satire	-11.8608
▁urging	-11.8609
▁Harmon	-11.8609
DR	-11.8611
▁integration	-11.8611
itor	-11.8614
bh	-11.8614
CR	-11.8615
▁Venezuela	-11.8619
▁soccer	-11.8619
▁narrat	-11.8621
▁patronage	-11.8621
▁Maz	-11.8622
ulf	-11.8622
▁tire	-11.8624
▁Ferry	-11.8625
▁periodical	-11.8628
guchi	-11.863
GB	-11.863
▁pianist	-11.863
▁hammer	-11.8631
▁Boot	-11.8635
▁Hack	-11.8636
▁Scha	-11.8637
▁Estate	-11.8637
▁Valentine	-11.8638
▁Self	-11.864
org	-11.864
▁supernatural	-11.8641
▁composing	-11.8641
▁weird	-11.8642
▁chao	-11.8643
▁Harding	-11.8643
▁integral	-11.8644
▁penetrat	-11.8645
▁JMA	-11.8646
▁judg	-11.8649
▁Dawson	-11.8653
▁maiden	-11.8653
▁fond	-11.8654
▁Barton	-11.8655
▁euro	-11.8655
fill	-11.8655
hiro	-11.8656
▁Kahn	-11.8657
▁pulp	-11.8657
▁Wave	-11.8658
▁MGM	-11.8658
▁CB	-11.866
▁Own	-11.866
▁Audi	-11.866
▁hack	-11.8664
pology	-11.8664
▁Guerrero	-11.8664
▁crusade	-11.8664
▁gallon	-11.8665
▁bulb	-11.8666
▁subdu	-11.8669
▁Elm	-11.867
ilo	-11.8672
▁probe	-11.8672
▁Ace	-11.8676
▁Kannada	-11.8676
▁contemplat	-11.8676
▁Northeast	-11.8678
▁Survivor	-11.8679
▁cheat	-11.8679
▁Troy	-11.8679
▁wit	-11.8681
grass	-11.8682
▁Rand	-11.8686
▁Eleanor	-11.8687
▁Pradesh	-11.8687
▁overturn	-11.8687
▁repuls	-11.8688
▁emulat	-11.8688
▁endur	-11.8689
hur	-11.869
nova	-11.8694
▁translate	-11.8696
asse	-11.8696
▁tent	-11.8697
licia	-11.8697
▁hinder	-11.8699
▁laser	-11.8701
▁overwhelm	-11.8702
▁lac	-11.8702
▁tablet	-11.8703
▁idol	-11.8703
▁Casting	-11.8703
▁defining	-11.8706
▁liberat	-11.8707
▁1790	-11.871
▁maternal	-11.8711
▁Bronze	-11.8711
▁Seth	-11.8715
▁Getty	-11.8715
abad	-11.8716
▁137	-11.8718
▁maybe	-11.8718
▁1776	-11.8719
hei	-11.8719
▁curse	-11.872
▁supervision	-11.873
▁Massa	-11.873
▁Marx	-11.8731
▁173	-11.8731
umble	-11.8732
▁shrub	-11.8734
▁turnpike	-11.8734
▁crazy	-11.8734
▁Cliff	-11.8734
fjord	-11.8735
▁justifi	-11.8735
▁Abdul	-11.8736
▁facial	-11.8738
▁realism	-11.874
▁126	-11.874
hap	-11.8742
▁reliabl	-11.8742
▁Monk	-11.8742
▁dressing	-11.8745
▁constitut	-11.8745
▁Wednesday	-11.8745
▁congressional	-11.8745
▁gasoline	-11.8745
▁Wisden	-11.8745
▁screw	-11.8747
▁biology	-11.8747
▁Benedict	-11.8757
▁afraid	-11.8757
▁knife	-11.8757
▁McLaren	-11.8758
▁till	-11.8761
gur	-11.8764
▁Solo	-11.8767
▁Gee	-11.8767
▁Touch	-11.8767
▁receptor	-11.8768
▁dismantl	-11.8768
▁Clyde	-11.8769
▁embrace	-11.8769
tations	-11.8775
▁tidal	-11.878
▁Lars	-11.8782
▁fare	-11.8785
▁1837	-11.8788
▁gag	-11.8793
▁persecution	-11.8793
▁Webb	-11.8798
▁onset	-11.8799
cultur	-11.8801
▁urge	-11.8802
▁Support	-11.8803
▁ladder	-11.8803
▁asteroid	-11.8803
umba	-11.8804
▁Maggi	-11.8804
▁resid	-11.8804
▁Ode	-11.8805
gia	-11.8807
▁obscure	-11.8809
▁abduct	-11.8812
rav	-11.8813
LM	-11.8814
▁Traditional	-11.8815
▁pillar	-11.8815
▁Amazing	-11.8815
▁Telugu	-11.8815
▁drought	-11.8815
▁retrospective	-11.8816
chal	-11.8816
▁Arabia	-11.8816
▁Bag	-11.8819
▁Blackburn	-11.8819
vul	-11.8819
▁sculptor	-11.882
TO	-11.8821
▁moor	-11.8821
ario	-11.8821
kawa	-11.8822
▁Ref	-11.8825
▁Sanders	-11.8825
tem	-11.8825
▁menu	-11.8826
▁investigator	-11.8826
▁Vishnu	-11.8827
▁elongat	-11.8827
▁Bede	-11.8828
LL	-11.8828
▁Brewer	-11.8828
▁Cir	-11.8831
▁Fey	-11.8831
▁ram	-11.8832
▁Chain	-11.8832
▁Stor	-11.8832
▁Flower	-11.8834
▁Juda	-11.8838
▁Federer	-11.8838
▁grace	-11.884
▁wander	-11.8841
▁eu	-11.8843
▁Broadcast	-11.8843
▁Shark	-11.8849
▁Johan	-11.8849
▁awkward	-11.885
▁Webster	-11.8851
▁Web	-11.8852
Cube	-11.8852
▁correspondent	-11.8852
▁continuation	-11.8853
▁Flu	-11.8858
▁prosecutor	-11.886
▁Cit	-11.8861
▁sulfur	-11.8862
▁Sheriff	-11.8862
▁pup	-11.8864
▁shutout	-11.8864
omer	-11.887
▁Shap	-11.8872
▁vacant	-11.8874
▁flock	-11.8877
▁summoned	-11.8881
▁fairy	-11.8881
▁Psych	-11.8882
▁prone	-11.8882
▁Wimbledon	-11.8885
▁Zagreb	-11.8885
▁fraction	-11.8885
▁leas	-11.8887
▁Lambert	-11.8888
▁diplomat	-11.8888
amo	-11.8889
▁undermine	-11.889
▁admiral	-11.889
▁hangar	-11.8891
▁Drum	-11.8893
▁bare	-11.8893
▁168	-11.8896
▁collar	-11.8898
▁masterpiece	-11.8898
▁Trent	-11.8898
▁crypt	-11.8898
▁deport	-11.89
▁reunion	-11.8901
▁Representative	-11.8901
▁realise	-11.8902
▁Bess	-11.8906
▁ATP	-11.8909
▁flavor	-11.8909
▁partisan	-11.8909
▁dip	-11.8912
▁naturalist	-11.8913
▁handful	-11.8914
▁Leave	-11.8916
ific	-11.8919
▁gravitational	-11.8921
▁inspect	-11.8921
▁Conrad	-11.8921
▁Philipp	-11.8921
▁cope	-11.8923
▁textile	-11.8924
▁Maur	-11.8929
CO	-11.8931
▁Specific	-11.8933
▁Biography	-11.8934
▁mound	-11.8934
▁recreation	-11.8941
▁Sparta	-11.8943
▁Gazette	-11.8944
▁prestigious	-11.8945
▁keeper	-11.8945
▁Wald	-11.8946
▁Sales	-11.8948
▁heroic	-11.8948
▁deity	-11.895
▁Ep	-11.8954
▁Aid	-11.8955
▁Matilda	-11.8956
▁verdict	-11.8956
▁Legal	-11.896
MT	-11.8961
▁troubled	-11.8961
▁catalog	-11.8965
rought	-11.8965
▁recognise	-11.8967
▁discourage	-11.8968
▁envision	-11.8968
▁Mani	-11.8969
▁167	-11.897
orum	-11.8971
MO	-11.8973
▁revolve	-11.8973
organ	-11.8976
▁Very	-11.8977
▁summon	-11.8978
▁incumbent	-11.898
▁Kaz	-11.8984
▁Communications	-11.8986
▁beta	-11.8986
▁recreat	-11.8988
▁Miner	-11.8988
▁Pond	-11.899
▁energetic	-11.8992
▁Orkney	-11.8992
▁immense	-11.8992
▁vigorous	-11.8992
▁IUC	-11.8992
▁embryo	-11.8997
▁Honey	-11.8998
▁Warrior	-11.8999
▁detection	-11.8999
▁Chau	-11.9002
ienne	-11.9003
▁consecrat	-11.9004
▁fad	-11.9005
▁Priv	-11.9007
▁starboard	-11.9009
▁Yang	-11.9015
▁Syracus	-11.9016
▁Tolkien	-11.9016
▁Trinidad	-11.9016
▁ineffective	-11.9016
▁nutrient	-11.9016
▁bunker	-11.9016
▁endemic	-11.9016
▁Vision	-11.9017
unn	-11.9022
▁Schw	-11.9023
▁clade	-11.9024
▁Legislative	-11.9027
▁Heinrich	-11.9027
oku	-11.9028
▁spectacular	-11.9028
cite	-11.9029
▁Expressway	-11.903
▁fabric	-11.9031
▁Jill	-11.9032
▁Gul	-11.9036
▁ecological	-11.9039
▁infinite	-11.9039
▁scarce	-11.904
▁nav	-11.9041
▁favourabl	-11.9044
▁1839	-11.9046
▁Fork	-11.9046
bili	-11.9047
▁Flow	-11.9048
ć	-11.9048
▁remixes	-11.9049
▁Dorothy	-11.9051
▁technological	-11.9051
▁Crosby	-11.9052
▁emblem	-11.9052
▁hik	-11.9053
▁boil	-11.9059
▁mantle	-11.9059
▁disput	-11.906
▁fuselage	-11.9063
▁meteor	-11.9063
▁tragedy	-11.9063
▁reproductive	-11.9064
▁slate	-11.9065
▁trench	-11.9067
▁Voyager	-11.9067
▁Pluto	-11.9076
▁Architecture	-11.9076
▁spray	-11.9077
▁460	-11.9078
▁papal	-11.9078
lich	-11.9078
▁Dome	-11.9081
▁breathing	-11.9082
▁Sinclair	-11.9087
▁lunar	-11.9088
▁Felix	-11.9088
▁invade	-11.9088
▁Classical	-11.9089
▁vacation	-11.909
▁195	-11.9093
▁Hep	-11.9096
▁Hutchinson	-11.9099
▁Gaelic	-11.9099
▁landowner	-11.9099
▁articulat	-11.91
▁Airways	-11.91
▁aunt	-11.9102
▁Sesam	-11.9103
▁imagine	-11.9104
▁bankruptc	-11.9104
▁Adi	-11.9105
NO	-11.9108
▁trenche	-11.9108
▁Khrushchev	-11.9111
▁Slayer	-11.9111
lept	-11.9112
nai	-11.9113
▁rendering	-11.9114
▁evaluation	-11.9115
▁Log	-11.9115
hou	-11.9115
lute	-11.9116
▁suck	-11.9117
▁practis	-11.9123
▁curtain	-11.9124
▁ultra	-11.9124
▁pipeline	-11.9125
▁Nico	-11.913
ngel	-11.9132
▁123	-11.9132
▁devastating	-11.914
▁happening	-11.9146
▁symmetr	-11.9147
▁iPhone	-11.9147
▁motorcycle	-11.9147
▁stack	-11.9148
▁Complex	-11.9148
▁Planning	-11.9148
▁faint	-11.9148
▁Auburn	-11.9148
▁Joey	-11.9148
▁rebound	-11.9155
▁Sym	-11.9159
▁valve	-11.916
▁Cent	-11.9161
zin	-11.9161
▁bribe	-11.9161
▁viruses	-11.9165
▁gram	-11.9166
jima	-11.9167
▁Matsu	-11.917
▁pedestrian	-11.9172
▁Krusty	-11.9172
▁Bf	-11.9172
▁Dorset	-11.9173
▁cavit	-11.9174
▁Midway	-11.9174
▁unnecessary	-11.9177
▁Casa	-11.9178
▁merchandise	-11.9179
▁Parliamentar	-11.9179
▁quantum	-11.9184
▁notorious	-11.9184
▁vinyl	-11.9184
▁grape	-11.9184
▁Vernon	-11.9184
▁fuck	-11.9189
▁steamer	-11.9194
▁taxi	-11.9195
▁Zimbabwe	-11.9196
▁encircl	-11.9196
▁monopol	-11.9202
▁Squad	-11.9208
▁tobacco	-11.9208
▁cop	-11.9209
▁thirteenth	-11.9212
▁terminated	-11.9217
▁consume	-11.9218
RP	-11.9219
▁Tax	-11.9219
▁Chor	-11.9219
▁geolog	-11.922
▁Herzegovina	-11.922
▁Wembley	-11.922
▁Jer	-11.9223
▁amphibious	-11.9224
▁conception	-11.9226
▁Bog	-11.9228
▁exam	-11.923
▁Chesapeak	-11.9232
▁Avenger	-11.9232
▁alumni	-11.9233
▁pardon	-11.9234
▁Brent	-11.9235
▁Border	-11.9236
▁awaken	-11.9237
▁Beau	-11.924
▁Extra	-11.924
▁Strip	-11.9241
▁stealing	-11.9244
▁congress	-11.9244
▁uncommon	-11.9244
▁Fighting	-11.9249
▁Pain	-11.9249
▁pathway	-11.925
▁Wanderers	-11.9257
▁Wyoming	-11.9257
▁Locke	-11.9258
▁equit	-11.9258
▁utilize	-11.9261
ON	-11.9267
▁quad	-11.9268
▁subplot	-11.9269
▁repeal	-11.9269
▁critique	-11.9269
pyr	-11.9271
▁airplane	-11.9272
▁sperm	-11.9273
▁depos	-11.9277
▁Rough	-11.9277
athi	-11.9277
▁obsess	-11.9277
▁1835	-11.9277
▁Croat	-11.9278
▁Leipzig	-11.9281
▁disappointing	-11.9281
▁abnormal	-11.9281
▁Sixth	-11.9285
▁Ville	-11.9287
▁catche	-11.9289
▁analyse	-11.9289
▁compelling	-11.9291
▁Bour	-11.9292
▁embrac	-11.9292
▁prostitute	-11.9293
dging	-11.9294
▁Bois	-11.9294
▁Warning	-11.9299
ancy	-11.9299
▁Thur	-11.9304
oxide	-11.9305
▁militant	-11.9306
▁Shannon	-11.9306
▁Alder	-11.9307
▁Christina	-11.9307
▁devote	-11.9308
▁nave	-11.9309
▁Cobb	-11.9314
MG	-11.9314
▁Scho	-11.9316
HC	-11.9317
▁sketche	-11.9317
▁Agreement	-11.9318
▁Undertaker	-11.9318
▁treason	-11.9318
▁cheese	-11.9318
▁intensification	-11.9319
▁Mono	-11.932
▁binary	-11.932
▁Turk	-11.9324
▁dishe	-11.9326
▁1799	-11.9328
bet	-11.9329
▁Shanghai	-11.933
▁wolf	-11.933
▁stipulat	-11.933
▁Jump	-11.9332
▁Sche	-11.9332
jor	-11.9335
▁autonom	-11.9337
ifi	-11.9338
▁geo	-11.9339
▁Booker	-11.9341
▁Declaration	-11.9342
▁Journey	-11.9342
▁Randolph	-11.9342
phag	-11.9343
▁Scene	-11.9343
▁NWA	-11.9345
▁embarrass	-11.9353
▁Smash	-11.9355
▁cardinal	-11.9355
▁diverg	-11.9355
▁124	-11.9355
lessness	-11.9357
▁Ng	-11.9362
otta	-11.9363
▁Mortal	-11.9365
▁bulkhead	-11.9368
▁thriv	-11.9369
▁verb	-11.9369
▁alpha	-11.9369
▁relegation	-11.9372
▁Aberdeen	-11.9379
▁Galveston	-11.9379
▁Offensive	-11.9379
▁rematch	-11.9379
▁Tide	-11.9381
▁Barrow	-11.9381
▁Spike	-11.9382
▁rebuild	-11.9388
▁305	-11.9391
▁behave	-11.9391
cam	-11.9392
▁parachute	-11.9392
▁Chemical	-11.9392
▁plasma	-11.9392
▁aquatic	-11.9392
▁summ	-11.9393
powder	-11.9397
▁1838	-11.94
▁rejection	-11.9402
▁Achievement	-11.9404
cken	-11.9405
▁trunkline	-11.9405
▁Fell	-11.941
▁Hook	-11.941
▁Clarkson	-11.9414
▁Lana	-11.9415
▁166	-11.9416
▁Twilight	-11.9417
▁Vladimir	-11.9417
▁pamphlet	-11.9417
▁repetitive	-11.9417
▁tremendous	-11.9417
cover	-11.9417
▁Goodman	-11.9417
▁spill	-11.9419
wrapped	-11.9422
▁Conan	-11.9424
▁ignit	-11.9424
▁forever	-11.9427
▁shower	-11.9429
▁Providence	-11.9429
ppe	-11.9429
tsch	-11.9435
▁McCa	-11.9435
aux	-11.9436
naut	-11.9439
▁furniture	-11.9441
cci	-11.9441
▁interfere	-11.9442
▁traffick	-11.9446
▁Crusader	-11.9446
▁Moreno	-11.9451
▁Butter	-11.9451
ecki	-11.9451
▁intimidat	-11.9454
▁Pig	-11.9455
▁Bates	-11.9455
▁Boone	-11.9456
▁Hipper	-11.9456
▁Silent	-11.9457
▁unbeaten	-11.946
kara	-11.946
▁Phase	-11.9461
▁mobilit	-11.9462
▁Kap	-11.9465
▁Ambassador	-11.9466
▁LGBT	-11.9466
▁oppress	-11.9466
▁visibility	-11.9466
▁Exeter	-11.9466
▁Slant	-11.9467
▁stud	-11.9471
▁precedent	-11.9473
TF	-11.9473
▁1829	-11.9475
▁Wig	-11.9477
▁Milne	-11.9478
▁reappear	-11.9479
▁globe	-11.9479
▁Bayern	-11.9479
▁summariz	-11.948
▁forgive	-11.9482
▁bak	-11.9488
▁Dad	-11.9489
▁isotope	-11.949
▁Pitchfork	-11.9491
▁Treasure	-11.9491
▁Exchange	-11.9491
▁Shepherd	-11.9491
▁Olympia	-11.9491
▁affiliat	-11.9492
▁compensate	-11.9493
▁dictat	-11.9495
▁Chess	-11.9496
▁Borg	-11.9497
▁Shir	-11.9497
▁Egg	-11.9498
▁bubble	-11.9498
tip	-11.9499
▁litter	-11.95
▁Sign	-11.95
▁Nur	-11.95
▁Thorn	-11.9502
[...]
